10
conv1.weight 150 be40ee1b bd20baba bdc4bc53 bd5a7ead be34eb87 3da45e40 be379573 bc50cd80 3d8e61ca bd8a10fd 3de869e3 3ccea540 3de12853 3e036697 bdb4d110 3d94db93 bdb136a7 3d8064c0 bdd602e0 3dbd77e0 3d25d7da bda04b4d bdc8e833 3d53f24d 3e3f153b 3dc49100 bc9e35f3 bc1f0ce7 3de8cfe0 be0e566a 3d882bca bd87b8fa 3decfc9a bd921cdd 3c22079a 3d8a5077 3e0cbe9d bcf0d14d 3e3ad65d be2d452f bd1220a0 be4c38bb 3c87b99a 3d687907 bda5cf10 3daa1dcd bd04ccba be31f7fd 3e1d3b52 3dfc8b5a 3dcf18d0 3e235c78 3d969e3d 3dd9c7bd 3e29f32a bd250dfa be1fb983 bdc9702a bcdab60d bcb409cd bab1ab33 3deabaf0 3d836560 be176d6d bd761793 bd40b76d 3df949c3 bd949827 bdab5ecd bd03b61a bd50617a bd49b347 be48627f 3e367965 3dd9ffaa bdc1d137 bdff9017 3be3ff33 3de9611d be12f913 bd9ab2a3 3dab5367 be041958 bcb66f9a be1a7073 3e3df4ad 3ddcca7a be3d4d40 bde22553 3d913227 3c3395cd 3d59187a be278ae8 bddb50fd 3db9d9d3 be1c2912 bd2bd540 3db41fa0 3dd496dd 3c4bbe1a 3d6d7a8d 3db634e3 bcbf67cd bd5fd4ba 3e1c65a2 3e47a4b0 3dbdba30 bdb30ced be3224e0 be4a2410 3ab558cd bd9d27d0 bd4e258d bce665e7 3e41ae93 3e422007 bc992f1a bd75fd6d 3dc6eab7 bc82bd40 be42de88 3d85842d 3e4410f2 be2256e3 bd30ecfa 3d31a7f3 be26c542 be2f577a 3e18e3db bd91099a 3deeee50 3c92781a 3d47dfd3 be087dd7 bd2ef593 3e0718b7 3dbbde50 bd6cd9fa 3cc98dda 3e1ccc72 be3371fa 3e038d8b bd7633d3 bd26a793 3dc2e987 be2a23ad bcf78333 3e43b622 3d936b0d bd977517
conv1.bias 6 bd32705a 3e2182a8 3d9ac003 3e0ad417 be03e195 3d6c2d8d
conv2.weight 2400 3c6f2224 3c69308f 3d9b4563 3d39227f 3d668743 3d12d913 3d0c8f01 bc68b0d1 bd93959c bd8d4125 bd504bc3 bd588767 3d1d7027 3ccf0f5e bcbeb907 bd7ec2b0 3da49ee8 3d7b5042 3d1f0d5c 3da584ca bd320e91 bd3e7486 bd43c295 bb818837 bd939c39 3d84608a 3b09a704 3d268c4d bd37a9c3 bc09d13a 3c2ff343 bcb7130c 3d9dd669 bd18cbb3 3ccfaed4 bd62eb1c bc1e5719 bcb173b5 3d104ba2 3d699e53 3ca2acdc bbf2ebf9 bcab471d 3d831aad bc9e0c1a 3d716f8a bd14cd46 3d89d0e8 3da68c8e 3d65408d 3d3fd091 3cf8f4af bd24711b 3a7f7380 3ce65087 bcaec6b5 3c6fd096 3d43df31 bd9aeef5 bd9833e2 bd481d6b 3c232f9a bc77f653 3c902313 bc9f0f28 bd5aef66 3c319cdc 3d628285 bd48cedd 3d929467 3ca49e69 3da4e20a bd994540 bda0103b 3ce2ecc6 bd9bff1f bd8908f3 3d2a0e43 3d225881 bd985f7c 3d70a758 bc820f62 3d784ae2 bd44435d bd9f00c5 bd5db411 bc4f6363 bda70156 bbb64b07 bd26e979 bc9bae87 b742d0eb 3b962965 bda391f6 3d2c06c7 bd4cf9ba 3d4bd08d 3d9939e7 bcdf1048 3c16240c 3d3866ef bbd3f872 bd8bea87 3d163b20 3d1f1b2b bd37397f bd612e70 bc697525 3c83247c bd292224 bb009fd7 bd10853d bd024a7a bc3713e3 bcfeefc2 3d8072b1 3cafc111 3d95a643 3d96fbbd 3c5aa4ed bd0b2266 3d4b5ecb bb3a3751 3d7793f0 bc8ed2d7 3d93dfda 3c30b4f9 bc949c5a bd5a2ee1 3d778281 3c2e017c 3ce75f22 3d072eab bb8a2acc bd282265 bcc7a2e9 bb6e3727 3d4fab81 bbc38ccc bca991d7 bc35ce4f 3c5ba07d 3d85771d 3d7c6160 bb9c7c05 3c315321 3d97a66a 3d12ee34 bc0d27d0 3d464205 3d1854d6 bcb3a2fd 3d074a69 3bd41035 bcf854b1 bbd1d784 3d9d6316 3cc8eb25 bd8a0e80 3d5520e0 3c8fb7b4 3d248412 39b3e11a 3d0502f3 3cc7ef60 3d92d20a 3d307f01 bd125b7d 3d2f42d9 bb9eafba 3d5d2197 bceab2c3 bcc451b2 3d9aa25a 3c6bb5ac 3c3b8f2f 3c092f51 3bae67c0 3b61293b bd914ef4 3da169a1 3d9fa44f bd663bf6 3ca56564 3d8a3913 3c8185f3 3d0fdaf8 3d7915bb 3d0df653 bc71cde0 bd8b01fb bd1db866 bd471c33 3ad87bdf bd6ccd4a 3d545d6b 3c83c040 bd10db25 bd41cba9 3cdb1b61 bca01d6a 3c7f958c 3bfb5fef 3c266624 bc3920da bc8312fd bc9cd704 3d00f58a bd579c56 3afacdb3 bd07e57b bd9ee98a 3cbc37fa 3cce1961 3d94cca7 3d5bbd71 3da3aaa0 bd83672c bd918de2 3cd00980 3d23e6f4 3d13568a bd5c3ace 3d82dc5c bd915966 3cb23ca6 bd000c3d bcf0b668 3d84234d 3d90a21b 3d01db6d 3d15e303 3b50f4f0 bd4d0b48 3cae66ab 3d8fd070 3d0c2223 bd95fd6f bc8cd0ac 3cd55d8b bc76b5a5 bcd00ffe bd929b76 3c08f7e0 3cb32d2b bd97fb4c 3c7f638a 3cc946e6 3cf99616 3d59dc0e bd459e12 3cd9e636 3bf75d07 bcc2403c bba30049 3da4ff16 3b2c6cc9 bcb48fff 3a9cfd45 bd217091 bd421079 bc96c99d 3d2d3769 bbcf2501 bc9ca140 3d0aeae1 3d398855 bc76d55e bca8e58a 3c62401b bd35d74a 3d76739d bcba9eda bce12545 3d98ed77 bd8173b7 bcb3f45f 3d9750ce bd1b6049 bc8be13c 3da05944 bcdd5d75 3d1a660d 3d0f81c4 3c810d1b bd8dc0f4 bd58970d bd85821f bda4cadd bcba8970 3c1cfb84 bd926ebd bd977001 3b8670e2 bcf8b7f5 3c76dc10 3c8ab9f8 3da6605b bb41a983 bd87563d bd5cea72 bd9a0f36 bc754334 3c1942de 3cdcc08c 3c7f4988 3c999399 3c390227 bbed4c69 bd1608ee 3c9dbcbd 3c301fcd bcbbffb3 3d73b7e2 bda2be0c 3cc493f4 bd3ccb53 3d310227 3d82c6ee 3d6cef83 3d003d08 bd1fb2c5 bc9375ed bcbba531 3c21da1a bd2256b0 3d229aed 3d42c756 bd076687 bcc0af66 bd6af68f bd39bc58 bd249d35 3d68eef1 bd8ee7c1 3cc840f2 3d95f1e4 bd5e3679 bd936e7f 3d353b42 3d4ccf45 3d0bf262 3d83c4a9 3d536be0 bc4fd26e 3d778648 bd282e5b 3d0f1753 bd49b6cf 3c961364 3d349d8f 3cfa370f 3d361eff bc4a0c0a 3ce592d6 3c2ae132 3d8b3035 3d429149 bd729a97 3d0335f2 3d31f63f 3cb85028 bd290c38 3da2c3aa bd6a3754 bd8801fa 3cd8d918 3d0d43dc 3bcaf6a9 3b4a2c16 3d0c2384 3d6cc0e1 bd21b6b2 3cd1c5b2 bcf6709c bd2cf82f bd2dab09 bd78e97f 3d8d1429 bce288bc bcbbfd16 bb017089 bd59db6c 3d58bb0c bcd05dd3 3d31aaea 3cc24dca bda5fe1f bd99bf9a bda2fb7a 3d960f95 3d988604 3ce4c1a1 bd0afe4d 3cdbfcc6 bd7cafea 3c591d55 bc36ce52 3d652362 3ba8062f b9cc70c8 bbecf94a 3da083a8 bd69e2ad 3d17ac53 bd9675a4 3c75af44 bd8c289b 3d227a90 3d95a186 bd206fae 3d95fb42 bd95bb9a 3d1f993a 3c63a7d0 bc992330 bc38c004 3d05a74a bc73c04e bda1be67 bcf19e50 3d8dd8ad bd8ffeb9 bce17a5f 3d0a05f9 3d748629 bd7b78f3 bd676d2e 3d49c1df 3d637b9a 3d598a6d 3d3ffb06 bd8e93bc 3cdc82d7 bb41cded 3c4d679b bcffb3ec 3da1ca62 bb90fc77 bd64e43f 3d2d46dd bae090e0 bd507ca6 bd13cd86 bd52e803 3c83804c 3c8f8644 bcb92a24 3bdb7aa5 bd358d4b bda5e0a7 bb00fb9d 3d9e8381 bd79201d 3c84ade9 bd28129b bc5266fa 3c9c323f bd24d69e bd8f635b baa61d6e bbc7506d 3d721156 3d057596 3d403b3e bd521d05 bd9caf93 bd4a1c66 bd865ea6 bb3a84b9 bcc6a4ad bbf5a997 bcbcd1ed bc5cf541 3c949d50 3da3df9a bc8a218d 3d894317 3d9632fc 3d200891 bcb0a3ee 3cb1c503 bd5b3ff5 bbe3fc67 bd1c66a8 bd800c54 bd8d9be6 bcf1653d 3ca6e0eb bae1afa0 3b385f8c 3d0c60d8 3cbf2a80 3d60d1de bca041c5 3c996d1a ba54e4d2 bce59839 bd608093 bcb965ce bd9e41b3 3c1e9927 bd84e6a5 bce89aef bd02acc4 3d8f520e bd884dba bc9fba65 3cef7fcb 3cbd1906 3d8937d0 3ca252e1 3d4498fe bd48c1f1 3d4f9b2f 3ae83f53 bc14976f bd1615a8 3cf7dd18 3d2d21a4 bd74d66a bd814eb2 3d056cc2 bd93fa97 bd9d4be1 3d71f177 3cd4e221 3bcdd81f b9f74020 3d0af147 bd6ee113 3d8b09b3 bc3a5e39 3c034534 bd9e4c34 3ba2edc0 bd4c575e 3d3c2f1b bd9ed82b 3d96b83f bc9ccfa1 bce42af7 ba0993bf bd88afa0 3cd7b8ca 3d8864fe bd0c7d71 bcd93466 bd8b56fb 3ca2f329 3d76566f 3d882166 3cd6a8b6 3d160380 bd75775b bd067ba9 3da32cdc 3a9de818 3d080fe6 bd77c9eb bd89ff44 3d840305 bd147715 bd34aefe bb6818c9 bbc2450e 3d121c6d 3d50b177 3d9460f3 bcc60695 bcad6f3a bd8318b6 bd29d8f5 bc7a0d21 bd2b3739 3b037466 bc8f7f1f 3d404c56 bd920e0e bad81a8b bcfcef6d 3bb44205 bd34a47b bda4ae4c baf9c676 3bef623c 3d912db6 bd63c591 bc475d49 3d87693f 3da10e1d 3c4c1dbe bd231c06 3d454258 bd722ff7 bd8c254f 3be5971a bd4348f2 3cd58b24 bd10d73c bd71b6c2 bcf4647b bd59f082 bd6b77ff 3d2ffbd5 bc063586 bd0f64c0 bda3f1a7 3d800964 bd45dd5c 3d882e24 bd8dfc0c bd1a2223 3da0a88b 3d0c38f0 bd56810d bd5b5271 bd289800 3cff7f18 3d2e67e4 bcf84c48 bd8c4fc5 bd5f7307 3d50985c 3c6987d7 3d08bf58 3d2c27a9 bd576cfd bd7c047d bd6e67be 3da469b6 3b1ebc38 3b987b27 bda32f7c 3c5c3f2c bd9b87b2 bd5b1761 3bab4232 bd952151 3d1590f7 3d6d5a6f bd0c41ee 3d730a47 3d823733 bd9a5d50 3b882e9c bcb15c27 bc4f742a 3d3c10ed bd2b9162 bd5df678 3c194bcf 3c8bcc7a bd3420e4 bd123b0b bd9675e1 3d3d6dde bd2a9d33 3d216274 bd8a6eab bd5f8776 bb2fdec4 3da637d4 bc2dc7a2 bc00625b bc9313cd 3c40cc87 bcce6f36 3d814eb9 3c087786 3d2c1bd2 3b30e655 3d7b077d bd5351e4 bd2acf21 bd043a78 bd0ad00c 3bbee26d 3d1ac7d3 bd7653f1 bd6b5446 3d4a9219 3d198628 3c8cc253 3d0d8fb9 3c1c6b13 bce4f2cd bc568508 bcaf7575 bd0d2ef5 bd4b8750 bc495469 bd57affe bd415d04 bd5159fe 3d9b35b5 3da50368 3d3785b4 bc881f38 3cafbeb3 3d0a563c 3c50df43 3d2cf708 3cfc2a5e 3cd81813 3d9f062b bd8ad3d8 3c002fbc 3d85dd9c 3d88cb48 bcbd241b 3d5f11ff bd473f64 bba850fa 3d97607f bc638c76 3d2df7c2 3da6e3ae bd0e9d69 3d0e96aa bd037297 bcb824a8 3d77f33e 3cd3dbde bd915fca 3d9cbb3a 3d6c7b4b 3d39a77e 3c17c1af 3d19e76c bcd11956 bce970bc 3d301820 3c50f563 3da03ab9 3ac01363 bb98944d 3d423d27 bd22bee5 bd948d32 3b336238 3da48597 bd7f892b 3c5203d0 bd5adc72 bd8faebc ba1dd041 bcedfe87 bc9f8724 3cdc731a bc9cd58c 3c15eb0e baff5425 3d7ed6b1 3ce6e160 bcf25093 bd7b8fa6 3d5df07a bc0e5597 3d068163 bd10ae3f 3d6cff52 3d62acd3 3b7ec519 3cad81b4 3c866501 3cfd7a7f bc272aab bd90137c bd6a3322 3c4f3f03 bda68d09 bd9f7f0c bd3846eb 3d2d04b7 bbc81a19 bd6d9a62 bd5f41dd bd01fb01 bd767224 3d9c0874 bd5652f6 bd31450b bd6b1819 bcf204ed 3d84f378 3cf4e41f 3bc74a38 bda4fd7b 3d072df4 3d9c79c8 baab1f54 3d6365ec bcd7cdf5 bd9ccc63 bb05ac5a 3d0551d0 bd12eb82 3b9b0b4a 3c5fb19a 3da07f10 bd2e778f bd9147d5 bd1bbff8 3d7103a9 bd1b3ce9 bbaf8c0e bd707ac6 bd2c2d4e bd8f8182 3cc8189c 3d61b709 bc321f22 bbc1f00e 3cab7c88 bc44ef9b 3be0be6f 3d0963ee 3d80b310 3d2ab8a5 3ca3b7fa 3d8f43b7 bd950fb2 bd5c337f 3d87f02c 3d9b76ff bd1be626 3d834af9 bc1978a2 bcbae53b bb4e9577 bcade2f7 3cb82fbe 3bcb0727 b9d60245 bd0c9c43 3d4b2460 bd4f3e9f ba92f0fb 3d5c423c bd3248ae bd5f4a95 3cb1d1ba bd8a4839 bd0b7600 3d91ee76 3d40d575 3d9738a5 bd9fdf66 bd9d4330 3ca68310 3cecf493 bd41d42f 3cf0cbbd 3c672234 bd0e3595 3d9c1eca 3d806d14 3d8a858d bcda20db 39fe1e88 bd1f404c 3d88da6d 3d97e7ad bd25da72 3cc265e6 3d8e0bc5 3c2a2c61 bce12189 bc4c9061 bd5b633b 3da3c1ba bd27a41a 3c924589 bd926223 3c00e2df 3d6c13a4 bd8979d7 3ced5fe7 3adccd68 3d350d13 bd1d4e85 bd482839 bd159060 bc427f4f 3d8cdc3c bba45a66 bd756a6c bd3e132d bc9e16f1 bcc40720 bbe872ed bd06a462 bd1f79b3 3cbac61a 3cc8265e bd0c7024 3cfc9388 bd046a54 3b7a281e bc89e555 3b0772fa 3d886dea bd0745e8 3d97054a bb745946 bd634e56 3cea7b91 3c168d2c 3da40d5c 3d80118c bd9b5aa3 3d8fc0d6 3d994d50 3d2e4db1 bb8880c0 3da21655 3bac955e 3b9c60e9 bb7a76fd 3d342171 bbe7ec1f 3c02842f bd027be0 3c2a09f7 3d2bb306 3d3204df 3d9cd021 3bf075cd bd9afc90 bd4bd0cf bd20bf00 bbd18866 bd8b625d 3d85d56c 3d8c1240 bd71b77e bcadcf2b bd4c2e49 bd36bc3f 3d996c01 bd1f806d 3d16e6ef 3d32d2b6 3c3266fc bd51d34d bbbfacc0 bc83a792 3da69911 3d66e062 3c183181 3d325859 bd82f688 3d4036c5 3d1d093e 3da52ee5 bcbde6d2 bd5df71f 3d8b19bb 3da32412 3bd2538b 3c92cf1d 3da29091 bd8db59d bcccce5f bd76573a 3d1faa1e 3d5f5686 bd9006e1 bc57a851 bd979e33 3d76ca8a 3d856e60 3cda15fa ba243335 ba646ae0 3d5faf39 3ce64aea bd7f648a 3c85652d 3d856f46 3d5985a7 bd6c5c03 bd82abf7 3d51b31c 3d8759df bd282f17 bd512f3d 3c9b0ea3 bd29254e 3d2cbba6 3cfb5d87 3d84133d bc867cb4 bcc4e38f bd82cd3f 3d94d11b 3d2b352c 3c15258c bd4bef3e 3d8ba6c7 3d995f15 bca59bd0 bd418ab3 bd1137f8 3d5b1c0b bd9066e5 bd1760cf bb0dd3cf 3d593f86 bc34439d bd764380 bd625675 3cd92e90 ba3f14a3 bca5c5b2 3d523ac0 3cfe7edb 3bb57654 bcc49d43 bd5bd917 bda4f2ce 3d20fd81 3a95a84f 3d8a21df bcefa3f6 bda15a43 bd375c32 bd6452e1 bc8537dc bd936f21 3d06c27b 3d70e670 3b18da9a bda674f5 3ce89743 bc8dad2b 3caedd9c bcc83bc8 bd7f1bfe bd873fab 3cc5c267 bcd342d1 3d962b1f bc2d003f 3c2f2bd5 3d5c4212 3d9c2fee 3cf315d2 3d8cd619 3d86299c 3da5afb8 bd8b5c7f 3d07e63d bd192613 bd7152d1 3c1a16ca 3d74e175 3d90c942 baa407c4 3d0aa05d bbc1581b 3c430b18 bca882c8 bd1a7679 bd52801d bd98bd87 bc1cb3c9 3d9d42a9 3cf2786b 3b8aa5d8 bd8dfc49 bc1ae296 bd9c60e4 3c55e2e0 bcf41691 3d8527c4 3d53d012 bd8ece96 3d3ca5b4 bcac0985 bda386e5 bce672bd 3c23c43e 3d37d47a 3b99806e 3d7dc1d9 bd959446 bd11919f bda600ae bc1636e9 bd6f23fd 3d41401d 3d4a3c4b bd0b5890 3d9b1889 bd67d555 bd7d2149 bc82b8ba 3c92c1f3 3d964656 bd636567 3d82eb72 3d0681d3 bd236305 bd5af886 3cdebb78 bbd4bbac 3d85e0fa 3c20694a bd9a3ed4 bcd1e9ee bd018688 bd3fee47 bc325c0b 3d0dcf7e bd50749b bc7862f6 bd10e706 3d51813e 3d80e67b 3d89d7cf 3da3c64e bd1f581c bd6a0270 3d6fed29 3d10d517 3c5bf4f4 bd3b3e5f bd85678b bcde1016 3d8a148f bd28ca3f bd55261f 3cf6c248 3d8e146f 3bbdc36d 3cb0ece2 3d58ce08 bcc3cda0 bd967895 3be089b0 bd3bfd16 3d04ed21 bd2fe051 3d9c76e4 bc022ca8 3d84bd03 bd6d4fbd bd8f0065 bd1efaa1 bca596d5 3d7e5070 bd81f13e bd0128bc 3cc782c3 3bd1c9a3 bd1283d0 3d5ce645 bd3d6878 3d1ed43a 3ca06335 bd3c1151 3c447c12 3cd0a411 bc0574ff bccecc84 3d226cce bd0fb8e6 bc96ba24 bc3799ab 3bc0c2b0 3c4a3b7a 3c87fb50 bd8deaee bd528a2a 3cacf29c 3d8a53a2 bd5a7021 bcbe44e7 bd55133d bd82541d bd93eff8 3cc599ae bbc5d9fb bd2bfda9 3da34627 bc2010dd 3c3b5576 3da7226e bd6e4f6c bcdf1c3f bd855547 3cd6d77f bc9a13ca bda45458 3acde4c7 3a7f4d9d 3d98eadd 3c8891ff bd74a3d7 3d3fb4c6 3d3faddb 3d073584 bd08ae6c 3d463260 bcdc875a 3b7ce333 3ce51a86 bd0c1dca 3d93bc94 3d95d698 3bc5d9a7 bc4ba2bd bd318340 3d644d4f bd016ca0 3d90e01a 3c5b58c2 3d838657 3d2bc9e0 3d72d9e1 bcb2d1f7 bc3a88e3 bd94c6c5 3d424306 bc50b885 bd5d9ade bcc598a4 bd92e36a 3d874b6b bc28a147 bc93cc26 3c11d425 3bbb202f 3d4f499d bd4393a5 3d85df62 bd2a20d9 3c0c076d bc819332 3c12c432 bb724bc7 3d082a1c bd474620 bd4d7978 3d57461d bd88b1a7 3d7b030c bda2bf36 bc54c11a 3d07fce5 3d15aa3c 3c5271f5 bb06e31d 3da0f7fd bd82f0a5 bc8a4c50 3d529c60 3d9b00f7 bc9498f7 3d967d5e 3d048bdb 3c7c4320 3d7bdddf 3d37c484 bd95589f bb1ed588 bd9b1fb1 bd594af7 3c4b119b 3c911ed2 3da36853 bcb6a75a 3d861210 3d9d56f4 bc2af4ea 3d9b4f4a 3b81cd89 3cf3aed0 3c8355d2 3d46e6b8 3cf764d8 bc83e513 bd719c5b 3d4de295 3b773505 3da0f0c4 bd60b798 bd665f80 bcecc70e 3d6dea67 bcf40fc5 3c3c6089 3a47d669 bcd6ead4 3c19de9d bd68b5d9 bd26ec40 3d1ccae7 bd644cd1 3d803cac 3da0621b 3cd5ad36 bd96ffc7 3cd3c7ae 3c4faf52 bd73cc5c bd08b120 3da1db4b 3d2a0774 3d814c17 bcb3f526 3c5d820f bd2bb96a 3c56e612 3d971250 3da494b8 3d5fc73d bd59ceb8 3c37a6f0 3c5448ab 3c843570 bca5d59e bcc04cd9 bd75a1c3 bbe4eed2 bd7e7b2f bc8c313b bd9730ae 3d80f4d2 bd8157ee 3ceb606e 3da5d451 3d6462cd 3da6d07a bd04224b bd860229 bd8ed6a6 bc6fee0f bd6aefa4 bcfec6e4 bd1fe57f 3da345fe 3cd9d901 3c6719ac bd204fc3 bcb2f63d 3d9644e3 3d0c48e6 3d16d7d2 bc039abb bd9f31db 3c871a0b 3d80f5e8 3d6e725c 3ccb81fa bd808e29 3d20d2df bd5b92e5 3d817e2d 3d47e1e2 3d776caf bd7fdb7b 3c86cd94 bd2b85f4 3d824576 3d4b65bf 3da41cea 3b8627a5 bce442af 3d87ac05 3d67a323 3b09714a 3d0ea199 bd11d0a7 3d3fcec5 3d586292 3d59af7a bd2ff67c 3cf5f667 bc8230b3 3da2f416 bcb34817 bd4dabbe bd8e73f3 3d95025d bd9963a7 bc942c64 bd0718a5 bd3eec34 bc952271 bca35a0a bd908e8e bd125765 3d1464c8 3d02509f 3d957d12 bc8be55c bd8db77e 3d33935f bce4dde6 bcc1a14e 3d1dfb36 3da6b4aa 3d8f050c 3c84d5e1 bc8107e7 3c8fa526 bcba5e92 3d6e3dd1 3c9d299b 3d5500bc bb343605 3c27ce61 3d5f32c8 bd1705c5 3d931fd7 bd430b13 3d792d69 bd5f54f3 bd87f741 bd8ab112 bb7c6bd4 3d01a7dd 3c719740 bd746f74 bcec86f6 bd6284fd 3ce01c8b 3c9ca92c 3d0a3c0e 3d89968b bd0a6b11 bd582181 bd5a9161 bd2b571b 3d711236 3d800440 bce7922f bbf81330 bd318f73 bc9c68ca bd95e50e 3d1af1b4 3d1dd099 bd71c543 bb8aa78f bcb32e06 3d32fc3a 3d6c6442 3c35b1ef bd89894b bd841347 3d976817 bc910529 bbdeb01f bd164a8c bd3b2a00 3d26802d bb0c71f0 3c65357d bd88c68e 3d881651 3d59935e 3da62e17 3d81a871 3d0ff4df 3c1cf745 bd8d1353 bd72c18f 3a83d370 3d44cb64 3afe3126 3d259aae 3ba4da81 bc664067 3c7dca45 b8fb7b20 bd30f79f bcf0117f 3d8343ea 3d6940db bc46152d bd74b13b 3d85e042 bd432c1f 3b6acab9 3cd62366 bac85e47 bcbfd06a 3d8908bf 3d4164db bda13a85 bd369b8e 3b146f6d 3d08d361 3d08680d bcacb8a4 bd721e89 3d9d4e5e bd77263e bd79408c 3da400e5 3cfa3f7d 3d147382 bd46ab64 bd4fa3fe 3cc31fff bc61cf1a 3d838e8e bce0c17a 3da291eb 3cfcf4e0 bd132590 bd852c45 3d49f79e bd1ef7d3 bd85eb8a 3c3bf5d2 3d2a8559 bc94a2ae 3c09f04b bd12fa42 3d808d05 3d99046a 3d5a4eed bda1ae26 bd98c035 3d39b1d5 3d90ed18 3d3295b5 3c05620d bc854a2b bd7b0922 bc3ab3a1 3d9de04f bc0ae66d bda07c36 3c41a2f0 bd97ee5e 3d6d693b bb9b5653 3c22bad7 3c7308eb bc36478f 3c8b5e83 bd74f6f6 3c51a487 3d0038f1 bd6d9db9 bd9fc46b 3ac01653 3cb4c531 bcbc4be1 bd52c5ca bbaba512 3d232504 bd42e238 bd9bf953 3da1882f bd9dbd17 bc4e3419 3d1d049c bd4fbac3 bbee51ef bb53a1fb 3c39b7fc 3c9cd61e bd20364f 3d6408e8 3c287f50 3da52bd5 3bb67a77 bd24c05b 3b32d011 3d9e002a bd5c5999 bbe85d89 bd3fe966 bd2965c5 3d7c4d6c 3d932b5a 3d3ee194 bd60c1d2 bd2d7540 bd8caccb bce08b67 3cc7f556 3d6a9746 bd139c48 bd3e21ab 3cdf19e6 3d880c1b 3be0a588 3d7159b5 3d8e1e6a bc68998c 3d9b4db3 3d740244 3cb35c0e bd90f395 bcce7be9 bc8f395a 38945647 bd92332b 3d7e07fa 3d64eea3 3c4617e9 bd878a93 bd5ae412 bda5fb2f bcebe941 3d4c366c bd7eb200 3d608506 bc6b4ba6 bc015049 bce3dad8 3c9165e0 bced0174 bd2690c5 3c526ee5 bd87dec4 3cee0853 bd75e79a 3d7fbc33 3d692cc8 bbbadcfc 3b84e7be 3be7d96d 3ce44e22 bc4ed7ee 3c541dae bbf4415a bd599103 3d00d27e bd8720ce bc66df89 3d9d9116 ba961f30 bbad42f4 3d1968fd 3d9a4aed 3d048e63 bcccfc2d 3d61c00f bbace8e5 3c266804 3d466922 bc3fe3de 3d014ae0 bb9f353a 3d2be0dc 3d6ff76b 3c8f090e bbc5a951 bd8525cb bd362624 bc8fb908 3d94b671 3b597730 3ceb3d42 bd3ba36a 3c98f318 bd6738cd bd26c8e5 bd9916f7 3d61e907 bd5c7613 bd4206d4 3d567ed1 3d79da92 3d32167d 3d8f62f2 bd5a15c8 3caa53a7 bd25f6bd bd967687 bd39f449 bcfb4f52 bc38b603 bc87478a bb6f4b9e bd989a79 3d7f43c4 3d9e3490 3d37b822 3da4096d bcb6c547 bbf73e7e bd8e6c16 3c14f464 bd7426bc bd9af583 bb3f1d75 bd19d559 bd846ac9 3b5f10f5 bc28fb76 3d982248 bb94acfd 3c98c164 3d87db6f bca5f5f9 3d6c1eb9 3d9ca8b9 bd0cc707 bd879806 3d38d8f8 bd23a1fe bd8ca923 bd982742 3d9d7da5 3d9f4c39 bd7f2ccd bd130b11 3cb1a8a3 3c020396 bbb15c3c bc48b08a bca025be bd6edfd7 384014b1 3c13d584 3d9b7ac5 bc836d9f 3d0c88b8 3d5f7e12 bda04cd3 bbfd2b76 3da60e63 bceccaef 3cbfa9b1 bc04a261 bc0bb4f6 3d4f4a13 bc0175cd bd598497 3d21cc45 bcd838e6 3b0e7da4 3d23c5e0 bcf1b0cf bd8085ad bd5c7876 3d9c053c bce4aaf8 3d420e9d bd5ecb47 3d6bf3eb 3d8bda6b 3bc87138 bcdd3afb 3d5814aa 3d00cbad bcee3656 bd894cd1 3d4fc077 bd196f73 3d05d2f4 bd9f7aef bd994d59 3d4365aa bcd6e3e9 3d910d0e bbbd8298 3d67485d bc9040d6 3d95fc81 bd83a233 bce7a5cd bc078b45 bd8d03bc bc0e33b5 bd725b0c 3ca7dd47 3c6a97fb bd9a9ceb bd94fd16 bda3d250 3c116834 3c89eca9 bc8a83cb 3d6f2431 bd99156a 3cf9f03f 3d77b748 bd9433b2 bc2a44d6 3d890e14 3d15a327 bbc4eb13 bc242c1a 3d6336fc bc05f544 bd9007a5 bcb92f49 3d4b9d5c 3d188744 bc242c63 3cd66d8f bd0e7b58 bd4359f8 3d519df7 bd804c54 bd78e67d 3d5ee458 bd4db492 bd5b0658 3d894eb7 3d4cd53d bd9336b6 bc6d9658 bda45579 bd347e90 bd5c03fa bc4269eb bcf090c4 bd30cf3c 3d4846cb bd53a835 bd0a5770 3b10cfb9 3cad9e7c 3d8b6678 bcbd80c7 bcb64bdd 3c63294c bbf51f5b 3ce030e0 3bb6635c 3da28760 bd49d54b 3d915796 bd47140e 3d10b97c 3d2ac0ab 3c43061d bd1926da 3d0508ee 3d65f59f bd598204 bcb7c0a8 3cf520f8 bd0347dc bd2fb8e9 3d093b61 3d8e7ce9 3d32b84c bd253699 bc364b65 3d1c4f39 3b678f73 bd2beef4 3cc7a767 3d82ffad 3ccafa12 3d8d9b65 bc87ad56 bc0b91a6 3d724f9e bccd7114 bc88566f bc8edc50 3d81f273 bc05686c 3d4950ad 3cf891c4 3d190848 bc74001d bda30142 3da0fba9 bc9dd407 3cc04bc4 bd9c0f4b 3c0f3cfc 3b84fb2c 3d8c9e68 3d5e4624 bd615123 3cb4a459 3d7c682f 3d557707 bd81fcd3 3da0a3f8 3c56693b 3d523f7f 3bcbb98f 3cadf52d 3d788e85 3c2b7015 3d48275b 3d6a450e 3d454d56 3d2eb4aa bbe2559f 3c6df7cb 3ca546cb bc7256e2 bd86e038 3cf4293f 3cc62672 bbdadf1a bd9ce6d2 3d8f42c0 3ccebeae bd247ed3 3d9bac88 bd4ca2c2 bb2c08d9 3c5989c4 bc8e60f6 bd01156d bd1f1dbb 3d4082aa bb258b1d 3c756b01 3d8dab92 bd65d9b2 bc378832 bd72907a bca6d097 bd3f0c64 3c97aece 3b0b37ea 3d285231 3d4f4e20 bd5687e1 3d7f63dd 3c9288fa 3d05e7b4 3d24fcaa 3d54ce5e 3d5dc69a bd979307 bda56a48 3d7f8bd7 bc91f946 bd860822 3d653b08 bd7262ff 3d8c99e5 bb367e77 bd600514 3cbe887d 3c2f9619 bd6a0175 bd898b9b bd597f2e bd312039 bae262ee 3d8838fe 3ce09491 3bad16c8 bd3d15ad bda0112f 3caacbc3 bd9e7a71 3d7f5be2 bd259835 3c9d31a1 3b222e09 bd8b6078 bd4ad8e1 3c9094bb 3c6209b0 bd231669 3ba92324 bd819f4a 3d307d52 bd2edfe6 3d264346 bd7c700e 3d2d142b 3d76c3d2 3d2a0ef0 3d80ce7c 3d94df84 3d6a4f94 3ba69f41 3d7e6bf7 bc848d75 3c948764 3cdd4fd8 3d064cfa bd5583ed 3c807547 bcf052a2 3d2d6dec bc075452 bbc0cf2e 3d3e5e70 3d50ec49 bcfd7eae 3d44ea22 3afb4003 bd589770 bab7d0fc 3d941bc0 3d5c9a80 3d8887cd bc48de82 3d81e3a3 3d833025 3d392c75 bc15ca3c bd60c101 bc7c2f2a 3c254e7d bd2007c7 3d52cb33 bda13755 bd16b999 bd3b071b bd07ecef 3c38aa61 bc812102 3cd3e0bf 3d0c9c46 3d6875b4 bd9667e5 bd24c8cf 3d887b90 3da2e951 3d4c96ee bda2d1c6 bb308045 3d3a5c97 bc501a72 3d82fcd5 3d8f3dad bc89dd99 3ce29559 ba8d3dbc 3bd3af4a 3d91a409 3c9524a0 3d8a6e00 3cee5019 bc6bdc2b 3d94309a bd5db68c bd7dc237 3d0b5b47 3d6f2bb7 bd67c008 3c0fd4d0 bd484d41 3d1b7c3b bd65adda bd8b6833 bc3470c4 3d9ab63c bcf0755a bd8fdea2 bcb6ba0d 3cf34b7c 3d2114b9 3d964ae4 3ca26c12 3d3eb67a bad82748 bcc16f56 bb4e6fbe 3d92b300 3c9411ac 3cd7ae57 3c0ceda3 bd3756a0 bc0df897 bce35f3a 3da0aa94 bbd966c7 3c8e4cb1 3d91a030 bcd30e08 3d2b39f0 bd27d680 bd298524 3d24f698 3c026b67 3d684f9d 3c29c086 3b4d597b 3d7321d8 bbff2cf4 bd425248 3d8d6a74 bced9b3e bd903085 3d97885f bd889756 bcb1afa9 3d84e876 bd6027f1 3d7b2074 3d9b55bf 3d2ddc6d bbc7a7a0 bcaa1256 3d6abf29 bd70a048 bb71d758 bd91e743 bd01751c 3bba284b bcbca61f 3d022cbd bcfee7d7 bd806499 3d86e633 3cbf4291 bc8890d5 3b14fef7 bd6d7839 bc264985 3d849e26 bd2d5be6 bd8a819e 3d0df556 bd4a0fc4 bd1a74c4 3da31ca4 bd97b79c bd4284cb 3d37b6eb 3bc1d985 3cd31eda 3d90b947 3bd08882 bd7d687e 3bff947c bd9dc192 3c559d11 bb0ff24a bd4e9848 3d45de76 3cc18957 3bcc07dc 3d4d4560 3d44f7f6 3cf1127d 3c95553b 3c452dc8 3c2ef17e 3d3795ca bd5f15b4 3cb7cb2b 3d9061a7 3ca80334 bcdd973f 3d3ed3ca bc176032 bd163b7e bd727bfe 3cea8987 ba20dcd3 bda4133f 3d4cf74f 3d88ca81 bd0e974f bd7abfa0 bbf67c69 bcd09869 3c872bb3 bd87c766 bd8b20fb bd19f17c bd8087ee 3cce6f85 3d887887 3b8aa216 3d1dec74 3ca4a78e bce0c7e2 bd549ede 3cd0189b bc248fe1 bd96c9ff 3da272d0 bd6f9bf1 3d265cef 3c6fd132 3d905e9f bd047220 3cb3ba8b bd7d9483 bd81179a badafca8 3d9b65bb bb2c9f93 bb9332b5 3d39083f bc192b84 3b256b6f bd2c575b bd40d9fa 3da35fb6 bd4b6b83 bd8e3eab 3cdb8b47 38547e45 3cb2c3d7 bd71615f 3d3bbfa8 3d31582c bcce9519 bd2ace97 3d017f7d 3cca3e9f bd2ff946 bba990f6 3c887d23 bd258b64 3bd0e12e 3c97bf80 3d3ce647 bd801f29 3d7a5f55 b75f8e89 bba7ec77 3d0479c2 3bdb667a bd9533f6 bd9291e2 bc7ca325 3da21230 bd821d86 3d9dc45a bd160127 3d3ab3ff 3c3c4b1a bd8b010a 3d7d93ee bd714802 bca15880 bca968da 3d87cdfb bd860feb bd9b50dd 3c188b5c bcc72d95 bd4d8659 bd57ea77 bd982a61 3d8aa809 bd833f48 3cd6db02 3d35d332 3bf40c86 3ccb3139 3d0a8453 bd98e25a 3d6f8563 3c9ed9b7 3d9da738 bd2c2f6b bd25cd06 3d952328 bda62097 bd48bc15 3d66df43 3d09969d bd7339eb bd44edde 3d7469e4 3cfb15f6 bc9cf54f bd8698bc bd964ab5 3d7e0e75 3c38a166 3d2f92b3 3c0be285 3da05351 3cd8dc5c 3c9fcc61 3d3dc750 bd32dc63 bda6b9d0 3d682de4 3cacb45f 3bdb19ce 3c22f50f bc827997 bcb654ed bd7dc5f1 3c709c2d bbf030ba 3d7b8f4d bd3f9d89 3d00370d bda193ea bd9ba775 3d373c36 3d553ec0 3a8fe759 3c5e2b51 3d9f5342 bd869f4e bc90c20c bd7b962e bc87064d bd223c3c 3cf39fee 3cfd2ad4 3b6aadd2 3c0685b4 bb8dc7a4 bbd542cd 3cc78484 3d9302e0 3d27b3a6 3c55883e bd0eadf2 3d69ec84 bd62c2a2 3d9b2783 bd3bac4b 3d2e8573 3d284c07 3d2dce16 bd9619e6 bcd90188 bcb34d1d 3c36588a 3da52b03 bca519a4 bc73086e bb9e42ba 3d97fc96 3be91e79 3d065715 3d120788 3d973a4a 3d5f4de1 3d9fb89c 3d9d2bcd bd35b607 3d886bd9 bce9ecc3 3da50129 bd50cd73 3d690ffb 3cba1c5a bbd5c0b4 3da6ccf0 bda65863 3d2f32cb 3a560b6a bd566252 3d9e2b9a 3d776e90 bd9b013c 3d65b4f4 3d6c26ba 3d4f4990 bd7a462c bd804c44 bd083cf8 3c0650cc 3da41f08 3c7370d2 3d9a2915 bd53b13f 3b8655b2 bc780906 bc489fd7 3ced61ed bda5d9a9 bd1690a4 3d06cd26 bd8138ec bd9f9080 bd4179a2 bca3dd93 bd22749d 3d6263a0 bbb6c49a 3bf25bf2 bc58300f bd47bcd1 3cd3f4d5 bcd6e585 bd8b9be7 3a885dcd 3d1053dc bd9437c8 bd4871a3 bd2f82fe 3d667352 bd826d8d bc45afd9 3bbddca8 bcd86c61 3d36d987 bd14b110 3d7b603e bca8963c
conv2.bias 16 bd183967 bcb1ac89 3caf85da 3d9590dc bc08d180 bc8ccc49 3ce542dc bcece92f 3c1edb93 bcca9fed bd0abf1a 3cb3e72f bd447f2f 3d868b53 bb795e9b 3cca0b4e
fc1.weight 48000 3c162c20 bd25196a bd00141d 3b405a00 3d0bdd13 3d17c13d 3ccd53b0 3cfa7dc3 bcceedf3 3cae0647 3c39fa53 bcb9b1e0 3d316fcb 3ca5184d bcb5943d 3d12c4ff bc366333 bc041260 bcfd4dfd bce0d9fd 3ba8201a bd0a79fa 3d26306d bce14473 3c89c8ed 3c7e3a67 bd227d42 3d325898 bc682eba 3c98f737 bd2c5c2d bd30d100 3c8acbfd 3d0cd2c8 3c78eae0 3c00b18d bd042d13 bbddb8b3 3c86b093 3d1190eb bc89c823 3cfd0d67 bcd3e6fd bcbe9020 3d18fa33 bca6803a bce3a2dd 3cc6e0fa bca4f0f0 bc8b8fa7 bc4c95b3 3d24fb0b 3d2b0500 bd0cf418 bd30eb52 bd45f07f bd451f53 3cf98d53 bd2fa5ad 3d18dc68 3d080b8a bb10a867 bc196107 bce76093 3cc0c273 3cdf6893 3cbe7457 bd00c0b5 3c9b77b3 3ca86287 3d08a887 3cfb7163 3c5e61cd b982ed9a 3d48ab1b bccdacd3 3c02d8f3 bd3be923 bd4c893f bd08161b 3d3ecbc5 3b31a9e7 bc7a63c0 bc8af457 bb2d209a bbf68ba7 bd2b8d37 3c87adfa bcc35233 bb01e333 bc049c13 3d03d6d0 3bde4bda bd3cd3e8 3d470d0d bd4a0c8a 3d051513 3d1daee8 bce0653a bc132187 3c8e1913 3cea7c83 3d2fc7f5 bccb1147 3d20704d 3bdc164d bccf02ad 3cec8010 3d4c1807 bd0b5e15 bcd1bd5d bc7d959a bcdc948d bd065bba 3cc170c0 bd10ccb2 bcb32567 3ca2f970 3c0735da 3c751e6d bc2df66d 3c90d34d bbe35027 3d3a0055 3a69c4cd 3d195c2d 3cd79fea 3cf2f5fa bd06b225 3cc15b30 3b556967 bc08acc0 bd12a34f 3d36d90a 3c800da0 bd0c187f bd10a1a2 3c817820 bc85306d 3c3be913 3c904633 bd4436e2 bbf6694d 3d293a53 3d02dd87 3d21bf88 bbf5261a 3d1f4a6b bc82cc93 3c95bbf7 bca0856a bd24dd33 bc4d5020 bd479577 bd487ccd 3c1d0240 bb577a80 3cb62ad7 3d312e1b bc9cd6e7 3cfe04ba 3d134208 bd1e99aa 3d1fab5f 3d3808e8 babecc67 bca54027 3cd71e6a 3d092067 3cd54cdd 3b8d2c33 3b30ade7 bc2abc27 3cdd6a33 3b99b3a7 bccba0f0 bd179270 3c442bad 3bc3e31a 3d3e8c3b 3bb53273 3d4c7e57 bca1f1aa bd100d62 bbd6aa00 bc955103 bc0842c7 bc7b8147 3d3b477b 3cb5cd00 3c04c3f3 ba573ecd 3d437872 3cb590e0 bc4d6bb3 bd4403f8 bd43d52a bc9a82fa 3c0ea81a 3c0b7dba 3cc1d0aa 3cba370a bcaf11dd 3cc57afa 3cdf011a 3c590cd3 3d25272d bd13ad08 3c019647 bc30d3d3 3d38f620 bd203e8b 3c867c4d bd12fb4f bd09ab2d bd3a4103 3c2a9f87 3d3aa97f bccea2d0 3b6afdb3 bd273b1f bd13426d 3ca1854a bbeadc00 bc052cc0 bce7cea7 3cfe80dd bd1cd538 bcbc790a 3d0529e5 3cb457f0 bd3c903f bd46f092 bcecba87 bd44e62d 3d0f848b bcc70fdd 3ca2e593 bd265b82 3c497933 3d3ee498 3d04a2ab 3d3783da bc2fab07 bbdbfb00 bd299538 bcad5293 bcf90ce7 baf19c33 3b2e8d00 bc501be0 bca94397 3d47b7a8 3bc91080 bd39a0c3 bc91d2f0 3ce22d73 bd406e38 3d3e8e3f bbb1e233 3c9d75a3 bc41ecda bd054860 3cdc4477 3c7849f3 bcdbcb20 3ca80343 bcd681ba bd165c58 bd49d01f 3d16df4a 3d25e59f 3d0d5fc3 3d0d9f98 3d3ba7ef 3a25c800 bd3df5b5 bd019243 3cf456f0 bd21ecc3 bbd18a27 bb7a5ae7 babbc600 bd39dbe7 3d29b047 bc06fa47 bc31776d bc9468c0 bc12483a bc030e87 bce56770 3d298373 3c045fc7 3bc2f133 bd10c49d 3d4aabf8 bc7d062d 3d030e75 bce04017 bbd687e7 3b08851a 3b377c67 bbc64767 bc387cc7 bced8140 bc7e8e7a bd1c626f 3d1f430d bc9c1210 3a4e2600 bd2b8f03 bd17a105 bd05ed4f 3c9afcaa 3d3ed292 39c00267 3d1e4392 bd3e6a3d bd4b4a7a 3c9d55da bce0529a bcd33740 3d2230fd ba61d667 3d031262 bc95390a 3bc4dd00 3d444163 3b7f4c80 3cea0223 3d37feab 3d242e30 3d2ae125 bcd03ee7 3c9699e7 bacddccd bcbac9da bce45cc3 3cb29760 3ccc9cb0 3ba8ec27 3d2bf538 3c83fd77 3d266f73 3cd2d3cd bc021960 bc961a4a bd2a7107 3d4c8223 bc634473 3ca376a0 3ce717f3 bd0e31c5 3cc65657 3cfa535a bcd3a033 bc9af21a 3c218e53 3d2dee73 3d3c9055 bc24994d bcc41673 3cc22a2d bc08b95a 3c0362fa bd25f177 3bbbc340 3c4fdee7 bc910630 3c04ab20 3d2651e5 bd3ccad7 3d368b20 bd0315ed bd34f8c7 3c1bce3a 3d43cd95 bd0e6e43 bd3c20f0 3d26922d bcbeb9bd bd31f6ed bd36c718 bc668427 bd461caf bd330033 3caaf7c7 bbd65273 3c7fe12d 3cd6fc03 3c15be47 3d2bff13 bce5b1ca 3d035dda bb2c791a 3d201157 3cfa4b13 bd184353 bce3ab63 bc800517 3bb3268d 3cead89a 3ca95bad 3d03e745 bab71a9a bd42972d 3c72d4d3 bd1cb7e0 bcfd0057 3c270880 bc60ef47 bd369bdb bd24a95a 3ce40f0a bbad8100 3d2f9c8a 3d04dcda 3d3aae6d 3cd530c7 bd49a6f3 bc8682b0 3cee77a3 bb90a20d bcb92f1a bc44dfa0 3d06fae3 bc82359d bcd564b0 bd03309b 3c9d357d 3c12b8a0 bb1167e7 3c4049da 3d2c3b3b 3cfa2a9d 3d1c0023 3d38f770 3c00a347 3d0c23d8 bd02ba10 bced914a bb80bb67 3c893fdd 3ca3889d bd16e287 bc880bf3 3cfc66ca bcee747a 3d3ffc98 bd3eadf8 bb3ef733 bbf9688d bc6a784d 3abbb733 bc7919ba 3c9873fd 3d33d7a5 bc02d253 3ceff180 bc911d27 3d08b725 3bef8ea7 ba9c4433 bd43c850 3d294702 bb3f7f80 bbb4abb3 bc986da7 bb9b2e67 bac4f49a 3c3288da bd1cd872 bc86dc17 3ce25810 3d3fbe07 3bbaac0d bcd56463 bccefb27 bcec12b7 bd225222 bd06a2a2 3d4c24f3 bce845da bcf6a507 bcfb4f5a 3d234fad 3a128d9a 3cea904d b900599a 3cbec45d 3d2e66cf 3d3d843a bc17fe00 bd31718a bb64709a bc38bc0d bd35812d bcda4407 3cae55dd 3c8fa157 3cbd960a bd2fd802 3a774d9a bd3e3b25 b9993c00 3cecf433 3ca7f027 3cd2fb2d bd31f7c7 3bb52eb3 bd1999b5 3d38af12 bc18c22d bd0cf477 bcfa3843 bc87496d bcc2d417 bcfb0dd7 bce50fdd bcf84167 3d010b50 bcf70d00 3d26d897 3d11144d bb80ae40 3cab6237 bd00c687 bd420165 bd38b4d7 3c741b4d 3c8fea43 3caa2150 3cff7587 bd1d3687 3d368e37 3ca0e08a 3c44fb7a 3cbc2403 bce49743 3c204ae7 3d3b00fd 3d455ded bcc2c61d bd3ba87d bc22e107 bc8b2b63 bd0f6878 3c56df7a 3ceef48a bcec5aba 3d393a9f 3d0e2a9f bcc6ba07 bc9df490 babf6a67 bc77113a 3d2c5cba 3ca5f5ed bd447438 bbe9cd4d bc8027ad bd2c7382 3b18ebcd bb4814b3 3cfec71d bc2c5a33 bca53b27 3ccfb237 bcb86537 3cd8d317 bc41a8d3 3c80bbb7 bcd6590d b8c34667 bd28e3ca bc40432d 3bda039a bd027bba 3d4cc377 bb445f1a bd46bd8f 3c78442d 3d35e52f bd0607fa bd0e8087 3cbfc477 bd36ddbb bcc13bcd bd01d22f 3c1f785a 3c3c07a7 bc89158a 3d01ee07 3d46d075 3d04b643 bd136733 3d352adb 3b8dc81a 3bd81c4d 3d1773e0 bd328ae7 3d308bd3 b9f2eccd bc9e543d 3c1207e0 bd3a7f52 bb458980 3bf2d2da bd0ad6ba bbc8f733 bd01d502 3cd6f997 3d393dcb 3b4337b3 3d07510a bd37f0b7 3c59e66d 3d21c8f3 bc3cda07 3d41750b bd470a02 bc285b87 3d3157a0 37970000 3ba7cce7 3c8ca0fa 3b629080 3d4c3e2a bd100570 3c333b8d 3cde724d bd16bd72 bd422033 3c085d33 3cdce113 bcb79047 bc230860 bc9a2707 3d0ce123 3c537dad bd144537 3d3191ba 3c4c4ee7 bd33e31b 3c6be3f3 bcd9b2ea bcc25c30 bd1d0797 bd311f18 3d00207f 3c8950d0 3d0367c0 bad02333 bcaae397 bd12079f bc45346d 3bd4375a bd1c4c35 3d06e325 ba64b467 3d0b017d 3cab71a7 3c92b24a 3d0332fd bd069e1f 3bfbcc00 bcbbe06a bd0110ad bc88fa47 3be30c0d bca5373a bc2246da 3cf74dad 3d0393eb 3c344e27 bc8e8c93 bd2a8d6a bbaf8db3 3d37efaa bb0d0bcd bcaef3e0 3d303c4a 3c7caf5a bc2b3bc0 39c64ccd 3d15d492 bceb45c7 3cdcaa30 3c07aaad bcfada43 bd0ecab8 bd157a4b bc359d33 bcf04207 bce7c660 bd3b85b7 3cf43780 bd395333 3c586693 bc1c811a ba4470cd 3ce03b2a bce3c23a 3c5abf1a bd461bbb 3b8c265a bd2819b3 3c765d0d bcbc65b0 3d1bff6d 3ccf3880 3c59f2cd bd399f32 3d3c57c7 3d3ecfad bcd651a7 3a4964cd 3d4332a3 3a9da767 3c813e77 bc0b019a 3d198127 bbb7b080 bcc53e67 3c83a04a 3c3ae560 bc224e80 bcafa410 bd11d79b bd1b7e0f bd1e066a bb8fcc4d bc28ceda 3ae43600 3cbc3b23 bbdd59a7 3d179340 3c2826c0 3d0d66d3 bcd877a3 3c8cc987 3b41b733 bd3aa5c7 bcffcbba bd487b0b 3cf422dd bb828a9a bcf6a7da 3bf19b67 3cbfcf60 3c6396d3 bd3c1f1f bb51524d bc05fc8d bd0d612b 3d1063ef bcdc8b6d bbf12067 3d37b87a 3cb7fb93 bb759e80 bd07cee5 bc4f2aa7 bd39d7f0 bc857ff7 3c00cfc7 3cb6aca0 bd3d7bf3 bd3b43b7 3d2a2db8 bd0b361d bd2ca1c0 3d3e3d50 3ccbd5f7 3d380322 bbfc7a33 3d2b1090 3d3b78ab bce00f23 3c5a1c7a 3aca879a bcb6ce07 3b9745f3 bd137522 3c588760 bd044b4f bb98fff3 3c5ecbcd 39b1f0cd 3d014280 3bce02e7 3c870c53 bd3a89f2 b9dc30cd bc8c0cb3 bd20e69a bd3a6ef8 3d1643a2 bd3da948 3cf24db3 3b4e4867 bb27d367 3cbfef6d bd335e82 bbf9a58d 3d351695 bd2f1990 bb263980 3d33377f 3c849fb0 3d39a8cb 3d48edc5 3c52dfe7 3c68ed53 bbc7c4b3 3d491978 bb300bb3 bca81cf7 3ce2e73d bcee7d50 ba3a8000 bd16b4f7 bc373133 bc83b6c0 3d386c1d 3cb4b99a 3c984f1d 3cd59767 bcf5a707 bd49d8ed 3cc23903 3cc6e317 3d06c8d5 3cadcf63 bc8dce1d bd1002cf 3c21056d 3cd7f80a 3d49f758 bc047d13 bd1724b8 3cef5f9a bd364f30 bd12df1f bcae517d bb2d2b9a bceb82fd 3c185cc7 bb7fd5b3 bcc7d0d7 bc8931d7 3c830777 bd12ff00 bc8cefb0 bce2fb6a bd3b8b8a bcbd1e40 3cd71b3a 3cfd1fd3 bc4fe78d bcfef033 bc9debb0 bab61033 3d1aada7 3d09d34a bd170b22 bc8e65b0 3cf13257 3d3a220b bd0ed695 3ca6923a 3cb31543 bd183100 3c3ab48d 3d0a44db 3b1813cd bcfeb847 3c9f9427 bbdefe80 bd363f2a 3d208207 bd14c818 bc16f960 bd355df0 bc3cf28d 3c9d7e83 bcd4f76d 3cd0da37 3c176b3a bcc5d963 3d29597a 3c29b26d 3cb450f3 bd2cb6db 3b653ccd bd32a01f bb58f533 3b90c4e7 bd3b2a9b bca9e8fd 3d115298 bc854780 bae59633 3d237a93 bd26a4bf 3d45c6f0 3c0db86d bcaec063 3cacdc7d bb933bc0 bc0197fa 3cb619d0 3cf86f47 3cff7840 bc0d164d bd0256f8 bd0c7180 bc534860 bc777d80 bd0404c5 3d2dea65 3cf34c7d 3c2f2c8d ba98359a 3cf6747d 3bb11c33 bcaca290 bbf1eca7 3ca11f10 bd447610 bc91a5fd bd0a0f60 3c3860ed 3d377f6d bcd8596a 3ced221a bccfc2d0 ba630133 bd4c2358 bd341927 3d0d4250 bc815eea 3d05a8f8 3d19fb92 bd4a9898 3cb506b3 3d06c7a7 3bd50fb3 3d241005 bcb51f80 bd3e9e22 bd1af8a0 bbeb1940 bc5e1533 bca9204d bbf0e7e7 bba1bc1a 3c77e1d3 bcf879da bc1c74fa 3caedaf7 bd11db93 bd44abbf 3c7487f3 bb7b9667 bc9e7dea bd202547 3cd6879a 3d3a1dc8 3bdbdea7 3bbbc2a7 3d320c23 3d393518 bc8f4fad 3c7edf8d bd29d6a3 3cdf7907 3b9f4a33 bb9e9a9a 3b42b280 bbfde0da 3c1786cd 3bed34f3 bd087a25 bcca8a40 3c9d0177 bd434b1a 3cdf833d 3c769d47 bbc3cc33 3d473975 3d2970d8 bbb0b7e7 bd2ff93d 39b7919a 3cd84be7 3cbfb2f7 3d3de55d 3c912150 bca79ada bc590e53 3cd1c5a7 bb91facd 3ce0b4ed 3d1e4e85 bcc2b22d bd358f9d bcbad4d3 bc4a02e7 3c5558b3 3b927bc0 bd3b1eb7 3d0197da bc06aa2d 3c7d0fe0 3cd9933a 3bdc79f3 3d27bf42 bcdc3c4a 3cfd5053 bbca750d bd2b0ef5 bcecfcf0 ba5ea333 3d3e2a3f bd28ae40 3d3695b3 bd4838b8 bcc1f3c7 bcbd53cd 3d4238b7 3d168775 bbe9444d bcb7e953 3d4001ab 3c4d9b53 bccef1e0 bc69d3b3 3cb21847 bc0d51c7 3cdfdbe7 bcb1fbdd 3cdde96a 3d17c693 bd230d4f 3c10f140 bd26fed7 3bb3631a bd232c07 bd220d3b bd240747 bc8f4500 3c625740 3cf41913 3caefb87 bcb163d0 bcf502d0 3cacf3bd 3c4cba9a bbfcff40 bd2f06d3 3d2d0ee8 bcee4723 bd4504ad bb7585b3 bc334040 bd26ca60 3b140fe7 3d363d7f 3ce5da97 3cd90dfd bb152467 bd12c073 bc8fc110 bc2ba213 3a4b8467 bd277d7d 3d1ae0f0 3d0389cf bccd642d 3ce5ccea 3a19d200 3c5a813a 3ce1895d 3c17ff27 3d291ba7 bcda5ff0 3c2a13c7 bd177fc3 3cafb980 bc6df127 3d1e2efb bba0348d bd4bbc5d 3b87ef67 bc2682ad bcbbad1a bc74737a bd4a978d bcb17727 bb04f233 bd320ffa bd1f97cf bce08467 3bd4b4b3 bc977980 bcca9b70 bc48fc2d 3d4bcb2d bc507ae7 bd037c03 bd2254b5 3bc262b3 bce6a497 3cc7f1a0 bca6ea90 3c0f12a7 bd47ccab bb827400 3cda2e9a 3c805483 bc17d147 3d02aa53 3c111d7a 3d06a4a7 bced8de7 bd2c25c8 3ba76e5a 3d214d60 3cadf98a 3d035965 bd3f55a8 3c3d7ded 3cc09213 3d496b72 bc57d3e7 bd2a9dd5 bd0912fd bc648647 3d472b97 bca9b773 ba0dcb9a bce8cdf3 3c211060 bbd3991a 3c65f73a bd14122b 3c2d7f20 bd2c71dd 3cdf856d 3d36224a bc46ce93 3d4c1b30 baa5ae67 bd2448ab bc168ba7 3cf311cd 3d16f2af 3c739f87 bcbb6f0d 3d0207b7 bd1afd05 3d40fd15 bd11085a 3d48da4f 3d21eec3 3cbead0d bcf93903 bb26f280 3d093fd3 3cee9767 3d4c9092 3cd8270a 3d37b317 ba21b267 bd0b8b6a bc4f1a3a bc5d0eda 3baf729a 3cd164f0 3d35f3cd 3cf4f0e3 bc79bf60 3c0e13d3 bbf7fce7 3c4cb780 bd3b3545 3b68071a bd1a016f 3d38e3bd bada0000 3bb6b940 3ce1b6e0 3d4922d8 bb649b9a 3c9c1ac3 bd2f8d6a 3d1b4320 3d4636ff 3c7fef53 bd0b6903 3d1171ea bcc2e0a3 bd4be058 bd3d1dfb bd0ebbe7 bcc37037 3cd1be63 bd400c73 3b22ee9a 3ca8a0e3 3d367f62 bcbc93a7 3cf4074d bc6cbd4d 3d25b21d bc94159d 3d011caf 3d08fc08 3cb4813d bc278307 3bf420e7 3cddd45d bd01a4e3 bc37acfa 3d24054f bce10cd0 3d10a9e2 bd2f2550 3bb2eeda 3cabf49d 3b075db3 3ce4d48d 3b8f6b00 bc15af53 bca79683 bcc0a393 3ca26343 bd1b63eb 3c32dd27 bd0089ff bc671cd3 3bb90f67 3d08d975 3c730427 bd35444a 3bfc3a80 bcfcadc7 bcc02533 bcef3b9d 3c76bced 3a7ffacd bcc41417 bd40d100 bcd82d7a bc1a9d8d bcf502ea 3ceffc2a 3c36e9ed 3cfb65e0 3d1f70c0 bcf9d1cd 3cc9e493 3d13cf00 3cde51f3 3c8d7e83 bc163d0d 3d410113 bc23e647 3d2e1a78 3d24088f 3b4e6d9a bd31bab7 bd414330 3d430960 bc8a784d bc85661a 3b77f9e7 bd079a87 3c0033b3 bbf1924d 3c841510 bcd207f7 bd202b4b bc839b83 3d059b60 3cdc2f00 3cd8fca0 bd3efe63 3d49dc4d 3d3011cf bd0fb645 bd0fe385 bd10dd42 bc324b7a bd226782 3d1cf047 bd428ee8 bd1dd2c2 bc13e0a7 bcf23110 3d1e8125 3be4fb73 bd48d64a bd27ac5a bb3a3533 bcbd1ba7 3cb1c4aa bcbf0aad 3d3d0292 bab2f233 3cbf4ff0 3c17ca53 bcd2176a bd2fb1e7 bd2a6910 bb3f1fcd bd3f43cb bcc322ad 3d326158 bc2060da 3a9a869a 3d31c5b5 3d06e380 bd39a9c2 bd10de98 bd3e3228 3c6fb26d bc88ab60 bd1a5820 bd21e372 bd19b3cd 3bd5dcc0 3c9dc440 bd18e487 3c8985b3 3cb9cc27 3d272cbf 3d3c766d 3ccfd023 ba83d69a 3d2de8d3 3cea835d 3d3be2cb 3b14051a 3c79b2d3 3d24ca8f bc030f07 3bd6c227 3d12ada0 bd2607ed 3c9599a7 bd173607 3cc965dd 3d49309b bcd0a5b3 3c886c07 bcedf1f0 bd3d27ed bd0c7edd bb932df3 3d102330 bd1f7005 bab297cd bc9f9dba 3c96ae0a 3cc64153 3d03a2b2 bc171fe7 bd2ce412 3c714507 bce096ed bcb90d1a bca43b2d 3d446f45 3b0beb4d 3d49f753 bc54748d bc86b823 3d4c77a5 bd402237 3cf2449a bceea580 bd3e5167 3c3d1ccd 3b98ceb3 3cd5b7b7 3b89a04d bd317475 bd0affdb bb9ed200 bbe2aab3 bd36be6b bd475c98 3c60abed bc059780 bc266393 bd30ddfd bd0181e5 3c8a2d00 3ce335b3 3b64529a 3b586500 3d321340 bd486542 bba81c67 bd2b0faa bc26baed 3cf0c640 bc812fc0 bae6a133 3be66be7 3d2bafaa bcee18f0 bc7fd620 3cdecb9d 3d06f38d bcbe2a63 3d04b062 38d27333 bcaa42e0 3d1a42f3 3c376740 3ca86810 bcb4b1d7 3c842043 bd07c01a bb71ab9a 3c98b2ad 3c86efe0 bcaecc27 bd4946ff 3d2e3ce2 3d443f9a 3a44d4cd bc96d31d 3d2499fb 3cfa73ca 3c242ded 3d17e81a bc686f47 bc9f0e9a bd2d9c30 3b7e709a 3c124da7 3d0fecab 3baa92b3 3d049220 bcfa8127 3d4a9190 3d33e9c7 3cbc3efa bb3e9f1a bd3ba720 39f79267 3d3dffe5 3bbd82cd bbfd62e7 3d1dc8ab 3d237b5f bd2b56fd 3c0a6467 3c88e437 3d19da40 3bfe1033 3abf3b9a bd011e8d bc0921e7 3c842820 3c3eeafa bc7e456d b95b6000 bce4c39a bd44baef 3c921070 bbb44067 3bca82c0 bd0c5faa bd08b913 bc3f9440 3bc3dc1a bca6ae1d bc833723 3adbfa67 bcd38a23 3c53ac7a 3c5df3ba bbdddc80 bc129f07 3c09ba0d 3b993da7 3d11d1d7 bcaaa840 3d409753 bcf07dc7 3ce0531d 3bfb15da 3caa9c53 3bfc9640 3d0f7f18 3ce73f4d bc993fa3 3d2592b2 bd175cd5 bd428c3a baa6549a bd0afbcf bd35f822 bc3c7aad 3c1f28a7 bba59dda 3b1b9ce7 3d4b3897 3cfd09ea 3d267b50 3ba3b5b3 bd1094aa ba7bd467 3c9fb1c3 bcf2f81a 3cef215a 3d2b33b5 3cd54003 3b651de7 3b4418cd 3d49e282 bd27dbca bd41ca65 3bf65780 bbc848e7 bc3b9b87 bd3977ef bca1a10d 3c3a01c7 3c89c740 3c1921b3 bbc30127 3c5ff7b3 3d0d7b95 3d19c107 bc3f4aed bc13ab6d bc6e37f3 3c930fdd bc9e475d 3bc3379a bd4a240b bd2239fd bd081d00 bc732d4d 3d177f30 bc22b2cd 3d34844b bd1af573 3cde207d 3d3e4f50 3ce92b77 3c05bd73 3b30b44d bd1b4738 bc71cf73 3c1cc227 bc1e740d bcbb9430 3c585f4d bc50d4fa bc46f4c0 bc0b5853 3d368e4f bd13accd bca1421d bd324522 3b63c09a bcb138ba bd4c90b3 bcf4df70 3cc18293 bcc754b7 bd0672b3 3d053acd 3cdee9f0 bcb72b37 3c7a885a bc344133 bceab3f7 bd051873 3c416a00 3ce473d3 3d4c06a0 3d409787 3c2f1f00 bd2c8880 bc70d507 3a550f9a bd47af60 3d48d70d bcc1dcba bd010a5a 3cd314fa bc95c423 3d301687 bbef854d 3d3ed6da bc6fe2da 3c59b793 3d15f287 bd1551cb 39ae5a67 bd082b52 bd3902f5 bd4cc4b0 bd323ed0 3c9916e3 3d1305a0 bc454ff3 bc88fe17 3d0bd058 bc6b3933 bcfed500 bd009c9f bcf60cd3 3c99d36a bd10b167 3d46c995 3cd725aa bd0c3cf0 3cbf78cd 3d2d7125 bcbe4e63 3cb44400 3c83c27d 3b80b780 3ba8f240 3d27607b bc12e473 bd1f9d82 bcd73150 bc054cda 3c869300 3d1730cb bd3c7f8a bd11f4f5 bd3fb32a bd0b8885 bd3632ca 3cfa5347 bb9725da 3d26a2bd bcc74d50 bcaf691a 3c6bef60 bd09ff6a 3bdaa2f3 bc051ba0 bbf7248d 3bc656b3 bb40531a bd2f3940 3d452e75 bb413700 3ca45dca 3c8db46d 3b9b5673 bd468df2 3d45a90b bcb6875d 3d3d59a3 3d4a909a 3ccd4d1a 3d092147 bb7a269a 3d19857b 3d0fab55 bc87d6e3 3ced7733 bd19ae95 3cc7996a 3d306167 bd30818a bd2b006f 3baae38d 3c4a7a2d 3d26fc12 bd307062 bc7e6b40 b928319a 3d420b57 bc8656ed 3cef811d bd3ae40b 3d2f9187 3c2bb68d bd1192d3 3b53431a 3c099ec0 bd21c742 bcb72c1d 3d19612d bbcf6bc0 bc6801c0 3b20cc67 3d2c668d bcafe4b3 3d3c52c7 bc0f6067 3d19563b bd1ca2c2 bd2aca67 bca4aa53 3bbdd18d bb64f99a bcb936da bc5d10a7 bd0aab3a bd240767 3cea4aba bc8fa0b0 bd13e080 3ce3e02d bca68a7d 3c84504d 3c8e629a bce8163a bcd1db3d 3b5f4c67 3ca614b7 3b1ede4d bca66cda bc52c933 3d371753 3bf48f8d 3ac02c00 3c9094cd bccebcb0 3c4595a7 bd4c7228 3c8bb69d 3ca27e0d bce05ba0 3d01872b 3cda46b3 3d13d79a 3d0221c7 bd135edd bd386b0a bc89dc70 bcede83a 3c27fe60 bb8770f3 3cad4e7a 3d2e1da2 3d389530 bcab3883 bd2c02db 3c1bf3ba 3c282fcd bd2d95a2 bd33122f 3d31c077 bcefd68d bd43aa3a bc4558d3 3ce113ea 3ccaf88d 3b62e19a 3d1fc8d8 bd247b8f bcbea0c3 bcf1783d 3ce7a300 3c6381a7 bcef8b70 3b12e91a bd0bf0e2 3c913f13 bcc4222a 3b05b8cd bcf4c257 bc3e225a bcb0334a bcf3f483 3c48de13 bc77fd07 bafd5e00 bcaa304a 3c2de2b3 bd09b3a5 3d10148d bd018815 bbbd3c0d bcd893a0 3c8ace20 3be35680 bbceb8cd 3cbe638d 3d2c4e8a bd47d4f3 3cde91f0 3c8d234a 3cbcf1d3 bc3f579a 3c0f8bc7 bd19fda2 3cdabeb0 bd018de8 3d0781a7 bd4bf1fb bc29fd67 3d0e9895 bc97ab30 bd201712 3cbfb67d 3b02d71a bb6b02b3 bc63e1c7 3d12d3a3 3caa2707 3c2fcf6d bc3d05e0 bd40ecb8 3d35bfc8 3cd6d1c3 bd047ad7 bb573f33 3cd7da37 bc6e153a 3d4adb85 bc5fcf93 3d4cb425 3ca3967a bcc25903 3bca879a bc074667 bd083e43 bb96b3c0 3aff1500 bcf44340 bc76242d bd20fe8b bc06d627 bd406ccf bd109055 bd100323 3b348080 bcc5e58d 3cd1a6ba bd47b0fb bd1a69ed bb8e668d 3b3854cd bc893d47 bce7cd8d bd1bb2fd ba2b4d33 bd1482bf bd2feb70 bce4779d bcfd504d 3c12e1ad 3d048e38 3c9f9963 3cb99447 3d3a41a7 bbf970da bc61a56d 3baf395a 3c586d27 bcd9acca 3b533480 bd0534e0 3cfe148a bd460218 3cb01380 3bfe370d bc5d7b8d bcbbf310 3d14e3ba 3c68e2b3 bc351833 bc4408ba b9f2e99a bc82dd50 bc05eae0 bcd2327d 3b1219e7 bd30f2d7 bc6b0cfa bc0972d3 bcf8a9c0 3c53a7e7 3be129cd 3cd47afa bcf068ea 3c971333 3d252b90 bd48d21f 3b9ca2f3 3cd61807 3d08cc5a 3cec13e3 3c219640 bcfc878d 3cf1d893 bd2549a0 bb846d27 3b84a35a 3d2a3ef0 bca0c050 bcacd79d 3c876df0 bd10afc3 3ce00183 3d0287af bb16ad4d 3ccd7b2a 3cf6b7d7 b9dc6a67 3d381d47 bd1d5ec8 3ce312e3 bc928807 bd1205ef 3adb2167 bd15ade0 3cdddec3 3c5f3793 3bbfa6b3 3aac76cd bd065b0b 3d190203 bd106852 bcd41a80 3d25e68d bc8d4167 bc1ca440 bd38592f bd0f7cba bc208bd3 bd044df7 bb98831a 3d449b4d bc045700 3c16ea47 3ca46f6d 3d33f7a0 bbaaf080 bd2f0285 bd334395 bd1e835a 3c82a123 3cfbba77 3cf5ef17 bc9ef8f7 bb246433 3c3b7d73 bc8f92d3 3ba5f5f3 3c4d15d3 bd1e9df0 3c9af2ad bbe8324d bc878657 bcd2fe8a bcfb80d0 bd28ef08 3cccc550 bb4a619a 3d14e130 bd28fadb bd09914a 3c61be9a bd0055df 3d187f70 3d09c890 bd4a035b 3d0b508a bcdda8fd 3d1a96cd 3c129fba 3cb04ac0 3c047b47 3d229148 3b8ef81a bd20f1bd 3d4b4193 3bc5abf3 bc862ab7 3c34166d bd14c963 3c02edc0 3bc80b67 bc008e3a 3d2c1253 bc74356d bb32c580 3c8deb93 3ce5103a bcae3ac7 3d2c6dea 3bab6373 bd374e38 3cabe667 bcfbb2f7 bac8a000 3cc0467d bc24209a 3ae03233 3bb6a08d 3d3d2d03 bcf41fe7 3bc356a7 bd02b225 3bac471a bcdb4603 bc9df573 3d141680 3d256952 3d151588 bc5b46cd 3bee711a bd23d528 3ce4b6e3 3d37017b bc8f4fe3 3b439a4d bab79a9a bd4bfd5f bd06e84d bd26269d 3cd7ad77 bd012652 3c759dc7 bcb5d773 bcdabb87 bc8636ca 3b65e81a 3d461130 bd2550a2 3d01052d 3d462825 bcca6c00 bd0e42c8 3c912a67 bd0960b2 bc841790 3c483500 bc901923 3d1af44a 3d4bceba bc9d619d 3d40f66b 3be2c2f3 bce349b0 bd01f49f 3d3a0eab ba0dc800 bcf13e97 3bddf6cd bc31025a bd14dfb3 bcb4d57a 3d21efc8 3c9cb04a 3d13886a bcea355d 3cf2d7c7 bd487a3b 3c7e7080 3d2019ef bb21b69a bcadc037 bb095d00 3cacb677 bc125560 bccc84dd 3cac3a7a 3d3de6d0 3d343f8d 3c5ee367 3b1820e7 bbd41ef3 3a35c067 bd4508c2 bca5a74d 3d0187b8 3c17f25a 3c8f0ea7 3ce72ad0 bd25d93b bd2d8067 3c7bcc13 3bb33080 3d1e5b9b bd2cc1b0 3d097de3 3d480ea5 bc258053 3c9edfcd bd33a3ff b94c999a bcd5acfd 3cb5c8f7 3cca843a bd2bbc83 3c81e290 ba17d067 bd4025b2 bd3d232b bb7fca1a 3ba82ee7 3bb87fc0 bce06a77 bd054283 3d411b73 bd01bfcf bcc5ca83 bd34c363 bc8400ad bcd03a0d 3d215e9d bcde1a6d bd31fa55 ba969b67 bd235223 3d254b70 bc321373 bd04afdb 3b64fc1a bb98fee7 3d368443 bd2f4595 3d0376ff bbda58f3 bd17c577 bd34d3db 3c362f0d 3c808c17 3d1c2e38 bd1f49c2 bcd8307d 3c5d1080 3cbb33d7 bc5aa24d bc46575a 3cf06193 3d08099a bd3466a7 3c7dfdfa 3c5d34ba 3d14bcd0 3ba04ab3 bba992c0 3d01b652 bc92fa3d bccefe17 bcb33fa7 3cc928d7 3cb78390 bcc7b3a0 3d14cd3b 3c5bf047 bc32a1c0 3d135f1a bc83a367 bc24029a 3c896ba7 bc28b3c7 3d2a02e2 3d1e458b bd34ed8d bcfd2ce3 3cbc9887 3be25f5a 3cdff8c0 3c618820 bd1dbb8d bc286c73 bba0bcc0 bcc1c913 bc836b03 bc606800 3c948d3d bd408002 bd462c07 3d194dd8 bcbf306a 3cbb640d 3cc6b933 bcd764ca 3d2fb83b bcd9cb9a bb7ef91a 3c584747 bc178807 3c7559c7 bca442e0 3b2e2c33 3c07e853 3bff0cf3 3aa98033 3c0fbc33 3d3cb363 3b2504e7 bd4c8557 3c1615ad 3c41174d bd17f47a 3d314f5d 3c992e7a 3cc2a8c3 3cb5b8d7 bc9e253d 3c55f407 bc9de8d3 3cbd643a 3b1d75e7 bd09f2fb 3c29abda bc9a4e40 bd2ad667 3be58973 3cd03303 bd3db550 bc404080 3d1f40d8 3c07ae2d 3b25f780 3caaba33 bd2454a3 bd22f585 3cac9170 bc4e20ad 3d2dd01b bc1c9653 bb4e7cb3 bce8bb3d 3b420880 bc317e87 bd2f3725 3c847e97 3d32b042 3d359d95 3cbfe28a bd4b8eaf 3cab5c4d bc4904c0 3c045627 3d2eb133 bb269733 bb2ffe4d bd134ed7 bd28db63 bcc32d90 bc6d021a bc945af3 3c7172f3 bc4e2733 bd2b6758 3c8162cd bc501f0d 3baab940 3d10e13d bcb39653 3d01ff5b bc649c4d 3d436562 3c22b2ed bcb302aa bba812f3 bc3ef29a bc886a4d bd414e47 3d034118 bca780c0 bba4f000 3cfccf93 3d238fb2 bd3626f3 3d32118a 3d1342a3 bd2acd93 bc22c2b3 3d02a1d5 bcf688b3 bc08f287 bc3e0f8d 3c383540 bd2e08a3 3c32d573 bd33b5c5 bb1e8eb3 3d456862 3c96d9bd bacca733 3b9acdc0 bcb50ff0 3d33aff7 3d00d4b3 ba256133 3c1a3767 3d22a7b0 bd35f92a 3ce6c5ad 3c2f1de0 bd0a6caa bc6f660d bc947a20 bc8af2ba b9dff99a 3cf97c80 3b0b844d bc86da50 3d2c6f22 bd14021a 3c2c5f80 bd4c99ea 3cde5e07 3c921aa7 3a101667 3c79a50d 3b1e9900 3ba4e91a 3d30c32d bd262697 3c2518da bbf0ef00 bcefe9c7 bca4d1ca bd419cfd 3c72e7ed 3c96bc6d 3c754053 3caf9f23 3c2d4967 3ca51b5d 3d4543a8 bc064593 bc668dad 3d224a27 3ccc78f7 bc3c19ba bd15e6fb 3c81489d bd0c33d5 3d282e1b bc889850 3cba75aa 3ca757f0 bcacd4d3 bca29873 bc6d2b1a 3c8c7d13 3caa9913 bd2a8ea5 bcb81e27 3d341a03 3ca8ac4d bb7450cd bd0209a3 bc3a35c0 bbd26acd 3ca51eb7 3b5e14e7 bcb49dfd bcc45e33 bbdbfa73 3d016bfb 3caa64a7 3c5e5fa0 3beecf27 bd2a50ca bccb74a3 bcc743b0 bd3616c2 3c635427 3c54a08d bd484853 3c53b453 bca2a133 bd0d794b bcdb3d8d bc8a6943 3d420518 bd3ae4cd b9a314cd bd27bc5d bc5ceae0 3cac7d2d 3d185d03 3ceed043 bd151ffa bb9effcd 3c377033 bcc6a473 3d34c5f8 3d3d31e5 bd0520d3 bb8e45a7 bb73d180 3cdd17ba bb9c6e9a 3d4a0f18 bc392d8d bcee606d bd09ad9f 3d32b882 bbfbe040 3c3dcd20 bd0715c2 3d1a7357 3ccbf35a 3cd9d190 3c83255d bd1519bd bc8bf7c3 3c5e0d80 bd002ba5 bcde83b0 3cc4274d bcedb943 3d482670 bc2fc233 3c93b327 3bc7b967 bcfe693d 3c53606d bcf8fd3a bd3ed21f 3c1f80ad bcb96333 bcd09470 bcd25cf0 bd11e458 bb371880 3cc826a3 3c687293 3c67405a 3d4c166f 3b6452e7 bd287c2f 3d3692bd bd04f0a7 3ca3a5ea 3cfc013d 3d239df8 3cfda10d bd171fc2 bcc5664a 3ce69030 3d3eacf2 3c24a700 3c94bd33 bd14262a 3cf6b963 bcdbf11d 3d3c546f bd3f3628 bd15efbb 3c17ba13 b9ceb000 3c98f1fd bd28445b 3c598fd3 3d11da2f bce2485a bc39aab3 3d2c00af 3d23d4da 3d389640 bb82f4cd 3d3f2bab 3c80e67a 3c2b85ed 3d37e235 3d4b1933 bc7b4487 bc652d67 bd196470 3d271eb7 bc9d0b97 bc646b73 bcbe8f77 bcd85efa bbed1f5a 3d29376b bbed7dda bb9406e7 bce8ef6a bd10176d bc25df47 bd0cf5c8 3d47fb6a bcd6e3ad 3d04a8ab 3d05c8fa 3ae0ed33 3c341640 bba88bda bc8ca127 bbbb900d 3b335c67 bcb5f227 bd02a54a bd11ae75 3d260cb8 3cc4f950 3abb609a 3bb160f3 bd1f093a bd41595b bd4b701d bb14089a 3c1c25fa bc9f35ba bce38420 bb83bb67 3b823740 bc182c9a bbf63e0d 3d2f248b bca4c200 3d091b9f 3c911240 3c410c27 bbaec433 3c560253 3d2fc9cf bc42111a baf30a9a 3c347353 bd3b56ab 3c8fbc37 3c93f93a bd10b278 bd403943 bd093298 3d12ce32 3ce18ac3 bd053eb3 3d0971da bc2084fa 3ca9c277 bd2c18cd bcd9dbfd bcc5831d 3c800c9d 3c611020 bcb9a273 bd1435a8 bd493b12 bd435807 3d204fc8 bce6ba1a bd20ece3 bd1048e7 bc3c78c0 bce97add 3d0c77f8 bd095a1d 3c951463 3d412657 bd2c5b63 bd0f5e18 3cee9b17 bd10c54a bbfba29a bd0f28d2 bd246480 3d211d17 bd2da422 3b826fb3 3c8bb930 bd3e9aff 3b53ce9a baa032cd bc6bff20 3d133162 3bf71a00 bc1baafa bababd33 bc29d57a bcbe1210 3d47bd93 3c1a2bc7 3d08c5e8 bc9a5d9d bd16f80a 3cb90907 399a7f33 3d4c622b bd3a7e77 3ca0638d 3d2a145f bd147ce5 bcc5f703 3d1486b2 bd21da0a 3d394602 bcae63a0 bd3078e3 3cf8c26d 3d077852 bc840e2a 3c56d7c7 3d47779a 3b61b81a 3c36a19a 3cbd02f3 3b81b3b3 3c93633d bcd2d3a0 bd0236c2 bcfd76b7 3d06227b 3c6ec54d bc8c94a0 bc4d6bfa 3d41cdf5 3c1ffb4d bd182035 bc2f171a bd24deed babb2833 bcbccab0 3c3c4ce0 3c56b37a bd2c7fff 3cb44ca3 3d141dbd bb8bec4d bc96f4f7 3cab3f77 3d2ea452 bbd96327 3d277968 bb9d4c1a bcc80e87 3ced3d7d 3d0574ab bd2bf16a 3c31591a 3cb95a57 3b43d467 bd07770d 3c2e3213 bcccc86a 3c77df00 bbc9cb40 bc23c1ed 39853ccd bb76f4e7 bd48ccd2 bc258fba bc9cd060 bce38b20 bcda2ff3 bbe2ad40 3bc04b4d bd0316f3 3d3e1620 bc594f13 bc10eeed bc323d5a 3cb1b0f0 3c42abcd bd030dff bc5b674d bd307e07 bd18fcba bd3950ea bc8b60b7 bc026f47 3d12100b bc165eed bc99f98a 3c962273 bd00f2f0 3bbb1780 bcaac0e3 bd3ce53b 3cbe07c3 bca2df83 bca1efa0 bbd02d73 3d133072 3bfce727 3cccbc2d 3cd1c823 3cd9d92a bc2f197a bcdfb2fa bc876fcd bc403dad 3d261df5 3d2db89f 3c23828d 395614cd bcd66440 3c1d84c7 3a14d867 3c31cb07 3a579c00 3c1cc793 bcfe1bc0 bca9bccd bd2dae1b 3cb5faea 3d258478 3d365b2b bd010c58 3ce88f40 3d3e7bb8 bc3fffed bc9823c3 babcc667 3d0b3c55 3cbd53d0 bd175282 3b9d38e7 3cf8610a bd2aed7a bd42e9c0 3ce27dc3 bc9ac630 bb7262e7 bd314cca 3c0350a7 bd0c4c2d 3ce5f083 bcd2c4b7 bc2f7613 bd1a3eb7 bc103e9a bb5fdd4d bd393258 3cb985b0 bd2c8c27 bd31fd33 3c9a10f0 3badec80 3cb1c0fa 3d23e202 3d3cf127 bd1f0df8 bce2f543 3d2a13b7 3d1da66a bc1b8880 bd07d530 3afc3000 3bfe5c0d bce6d7ca bd48af75 3c996c3a 3cdd779d bd4b086a 3d13af85 bd1175d2 3d230d95 3d47370f bcf09a8a 3c6531fa 3d056420 3c0c8ada 3cb8db43 3d45d6bb 3c07e707 3c7e51c0 3d0be4b0 3d4c58f2 3c958360 3c0f5633 3d3e3fbb bb845ca7 3d0f9282 3c50ba1a 3c889e53 3d04b8ab 3ceaec50 3cf348b7 3c024e6d 3d30633b 3d229beb bd12adb7 3bec6a80 3c7a385a 3c9cf20a bb24ddcd bd3c0e63 bd3f0997 3ce9008d bd40b8d2 39d02800 bd4642f7 bc9122b0 baa9b79a bc7b666d 3d250030 3d45f66f 3d10da8b bd2e1015 3cb792fa bd2d8878 bd14f9c0 3d138798 bd1e9232 bc6c91c7 bd34f4a8 bd1989ed bc2607da bd02ac38 bd32f6f5 bc0e8933 bb61da67 3c89eca3 3cba890d bbc4391a 3c3785ed 3c9fc7d0 bc48d1ad 3d28f08b bc6cd827 bd4838ff bb8bc8e7 bb8f139a 3c8e9630 bc00a82d bc50997a bc8c6743 3d2e2b77 bcbdce07 3cba8e17 3c1df31a 3d2c9cab 3cde1fda bc06d2a7 3cb38967 bc631dcd 3c85e723 3c575f27 bd0f608f bccca643 3d1d82a7 bcfb75ba 3c33aaa0 3c1e9647 bd3f0b2a bc16fc33 3acbf533 bc88bc80 3b018fcd 3c60e77a 3d2bd4ef 3c74537a 3d1c4b93 bc886eb3 bd2255a0 3d13927d 3cbb09c7 bd46c67d 3c2ac280 3d3f1175 3c9fa610 3d4be928 3c6e4a87 bd03762a 3d159413 3d0fc04b bc87c8a3 3a338e67 bd02f6b8 bc454f07 bcfed03d bbbdf3cd 3c711467 bcf19f1d bcb9457d 3d1ba538 3c7ebd7a bce2f6a0 bcb3c153 bd34e283 3bcfb5e7 bc9e02fa bcbf96b3 bc914a0d bd411c9d 3cb35990 3d1fe282 3cd15fa3 bd0c2a0b 3c9e5b30 3cbb3a90 bcb2af50 3cb07eca 3c97a207 bc8e6edd 3d1da46d bd4b3ada 3ce83703 3bcaa05a bce26e07 bba12d80 bd36ca97 bcd100da 3c696440 3bb39da7 bd23cdba 3c00a080 bd12b26a 3c20733a bcd085e3 3d049b6f 3d08ca48 bcb88f77 3c304b0d 3c914a30 bcc60af3 baa6e167 bc512dcd bd3b15bf 3bcdf633 bcdbd19a bd2efca2 bd3ae562 bb9f71a7 ba7ea4cd 3cac61dd bd0eb057 ba8acd33 3d3814ba bd157ce5 bd06d853 bd15cb57 bd1fb845 3d0bd455 bd088ce0 3d108f7a bd068923 3d1e7e05 3d2cfc77 bd41156f 3d41c20a 3c334153 bc1bb413 bd4c8817 bc89516d bc9b6fe3 bab88e67 bce2b370 bd0f5315 3c499a9a 3d0ee052 bca4ab97 3d00b473 babfc567 bd149cf7 bd2ed458 bcf76283 bd3f0e38 3c977ed0 3cf5ee1d 3b97ff5a 3ccf5277 3d16dc7f bd25a4ba 3c922b20 bcd6f89a 3bc0ea27 bc11cbc0 bd16b5cb 3b6c1a67 3c0ba10d 3c8cffd0 3caa4347 bd25a10a 3c2f80a0 3c9f4abd bcd59ff0 3ce6e847 3c995a9a 3d36262f bc4e2260 bd3c9343 3d2d3560 bcc4e5f3 3d0a67ea bd36c1d5 bd45c478 3ca968cd bc059193 3d2e4e2d 3ccfd92d 3d2e45a0 3c9bbdc3 3ce5c693 bcc11547 bcfa3650 bd39c300 3d1ba5ff bd45d238 3c207d67 bce3671d 3d24df13 3c85de3a 3b95b00d 3a320467 bd331512 bd261a1a 3c07e340 3c88db0d 3d3bd3a7 bd2bd90d 3c8a180a 3d239595 bd254eda bd0ae3ed 3d2c9ca5 3c7b6fba bc815423 bb15219a bbaab140 3d403470 bc6c6e6d bd0a2a87 bd06a95f 3adee1cd 3d049f5a bd05586a bd15c700 bd239dd7 bba6ee4d bd0c144a bc95745d bc1a8a20 bce46867 3b3d67e7 3d21c3ad bbff731a bd3ca07f 3c9be357 3c614113 bca12660 bd1953fd bd34a573 3c9e7320 3cdf2d07 bb4e10cd bcf46af0 3d195065 bd267c27 3c9b012d bd20c38a bd3f1e5a bd3d1693 3cf3605d 3d4974a0 3c8b103a bd11faea bd303485 3d262393 bbe343f3 bd00fad2 bd05040b 3c1049ad bccae493 3d0bee9d 3c82288d 3cea04a3 3b7956e7 3c34f3a0 3cee8a8a 3ca95ef3 3c547213 3d1ae68a 3d21707b bd17e330 bcd533d7 3cf90427 3d360b73 bc6f97b3 bc9016c7 3ca79b5d bcabc62d bd0135e2 3cdc4bea 3c657827 bc315140 3d27ad35 bd28391d 3ca1876d bc85cc7a bcf82c6a bb19c9cd bd2bf1bd 3ccf49c3 bc5af67a bd35d4a3 bc4df3a0 bcc1a0a0 3c9077ed 3d2057af 3d417bd3 3d19bae7 bd3ed3b8 bcd150f7 bc96c8d0 bd1164ca 3c353473 3d0078eb 3c97a0bd bc58a07a bc097a00 bc55d413 3d2b9d0b ba80089a bc06c2d3 bc339a6d bd3a6880 3d0f82c5 3c5c21da bd0f1af0 3d192f7f bcd3b9a0 bc98757a bd06a4b7 bd3fce0f bd16b9cd 3b2dc500 3d375beb 3d3e8a3a 3d281efb 3d2436db 3d1debba 3c64fbcd 3cff2e97 3bea900d bce32957 bd2040f2 bc6522a7 398be000 3d04baf5 bc74b047 3d1e39e0 3d3c7703 3d22161a 3c4b326d bcfb2e87 3cff1837 3a2dce00 bd2b6645 3c007b60 3d3c66e5 bd26d212 bd1a3297 bc02a27a bca9b3d7 bce5b4f3 3d26f1cb 3d13efa2 bc9b0ca0 3ce16fc7 bd3248f0 bceb7d13 3cbc3b33 3bd6204d bcf814e3 bd4c620a bd158843 bd1fe19a bd19c295 3cb6c043 3c6926d3 bb370d4d 3cc7bae3 3ce92f30 bcd94ad0 3bc373cd 3d31e89a 3c809e2a 3d459b37 3d49d3e8 3c853e70 3d04bb25 3d1c043d 3be9ebb3 bba46acd 3d20300b bce683a7 3bc79867 bd3155f0 3d02120b bc6f1e20 bb315bcd 3cf1f0c7 bc462e60 3c8fb4ed bd3ea5c5 3ab4bccd bd260e6d 3d1b6ec8 3c510047 3cb2d433 bcd12fd3 bcc02ec7 bcea249d bd33ec43 bb2001cd bc2b3d40 bd385492 3d3d6997 3d41afa3 bcfbf0c3 3cfa86fa bc3a5e9a bbbb1f9a 3c76bfa0 bd3b8acf bd2de02a 3d341b13 3c9a85c3 bd37e4fa bccd8ffa 3c607973 3c9b6340 bca7a22a 3d0550ef 3bc0e800 bd01eedf 3bccf45a bcb00853 3cf11cb0 3d312aad 3cbbcf5d 3c942d27 bc0baf60 3d0e30af 3d2a6ab8 3c8ff0ba 3d0ff228 bcf0a583 3d3c05cf 3d16166a bcf3753d 3c91a53d 3cb702e0 bcaf483a bce56877 bca04fcd 3d385c0a bcf81577 3d002d45 3d032ef5 bca25b1a bd1c72db bc3e86fa bb95525a bcec8a23 bd1b0780 bc68e4e0 bd04c037 3d2147af bca369cd bd3748ff 3c9de720 bd4b0a2a bb19a600 bc98e97d 3d2712fd bd22544f 3d15e7ef bae247cd bca1dbad bd4114e3 bb1a92b3 3cfc193d 3d07823b 3c934757 3ccd31c7 bd264dab 3ccecbd7 3d1e7dd7 3cb64cc3 3ca43c7d bcd82853 bb336ccd 3caf9793 3d43abaf 3cb7f537 bc304253 bd1d3d9a bd48f61f 3d166505 bd07fd13 bcc0280d bd181718 bcd9f697 bcbe290d 3d0254b8 3c2f33c7 3d1e9428 bcee0b53 3d1c8df5 bcd00327 3ca42d90 b907b4cd 3d2054c2 bcd79b8d bca96097 3d38d7ad 3d0b2540 3d12ce1b bc0081b3 bcd9caa0 bc7fb227 bbb99e27 3d18b1fa bc0b9233 3ca1fed7 bba4ed27 3caa29f3 bc8aa5ba 3c2c85e7 3cdd5b73 bd432888 bcd323ad 3d0e487b 3d1ff90f 3c0b8f4d bc4a8233 3d00c047 bd316cc0 bb2a9c80 3d28f6dd 3cba7a57 3d35673a 3a9cad9a bc8c71ad bce76150 bc9a1803 3c5faa33 bd142c38 bd39b20d bc737727 3d31c502 bbf21d40 bd49aaf8 bb74c99a 3d449425 bb609e1a bc2b5840 3ccc665d bcd6a69d 3ca22387 bd02bf5b 3cfeaeb3 3cab601a 3bbaa44d bcff9fba bc0c7447 3d1cb657 3bc26d40 bd321f6b bd4a06ad bbe40b67 bbfb7cda 3ca0eaf3 bd04eb1a bcd34087 bc109ee0 bc32a76d 3d03eb7f bd3de42f bbf639b3 bd1a857b 3ac2c1cd bc288d3a bc292fcd bc742aed 3cbc3f93 3c7ec4a7 3cf2e18d bc5e578d 3d2e1b5a bce46383 3c864997 bc3113c7 bbf4b6b3 3d0a4970 3cd5f283 bd1bec75 bd0ddabd 3d3edb12 3d2d6bc7 3d2c720b 3d3d4d97 bc238100 bd3c8e78 3d02fb27 bcc9a917 bb8cda0d bcef2b4a bca89a2a 3d444155 3ba89c27 3d0d33cf bc551d5a 3ccdb7fa 3d2bc07d 3c1a0b67 bc348b73 bc6bb3fa bd2373ff 3d03b318 3d21da4d 3b69429a 3d20eb02 bce8b5a3 bb82ab5a 3d053dba bb9643da bcc57330 bcd941ed bb141f9a 3d0f92c0 bcd80a50 3cb7b3a7 bd152b9a bc81398a bc2cd28d bd07b7f3 bc472167 bc7b5287 3cf8ae90 3c65876d 3c93f367 3c34f947 bcecd9fa bcac5150 bcad3d9d bc9ae2c7 3991ec00 3d2ff720 ba183667 bd01af9a bce5c4da 3b98d280 bd248078 bcb1c150 bb52e59a bc467fed 3cda5d4a bd394cfb 3c7e328d bca04070 3c55c940 bc8ca2b7 bceaca93 3d013cca b86ca000 bcab606a bc8a497a 3d229502 3bc4e1e7 bd28c098 3d2d37df 3c9715ea bd028e1b bd3af0d8 3d411e75 3d330cdf bd0290dd bd22188d 3ceb1b80 bcf4834d bca8a853 bc99b2fd bb9570c0 bc991873 bce48ad3 3c88320d 3d11e1bd bd03e695 bc034107 bc4687c0 bc818f87 bca21610 bb6b1833 3cdca4ba bad67167 bc997890 3c4cd313 3d1835f7 3ca19727 bd402a62 3d36f840 bd22db3b 3c9e3fa0 3c68800d bc99c803 bd3d6653 bc85ab50 3d3c4253 3c669573 bce5d61a 3d1fc570 bd0b4ae7 3d0eb7cd bc719880 bc9e87d0 bd053a33 3cd46c73 bcad6f0d 3d423b95 3d0acde5 3c9ecdf0 3cdbe433 bd3cac6d 3d22c74d bceef73a 3d043bfb 3cf9593d 3c2e3afa bb64719a 3d236447 bd033117 bd260983 bd3c1070 3c9b1dfd bc06c0c0 bc4c0573 bbd7ad80 3ba7d4da 3d06df4b ba925067 3c3119b3 bcef3030 bcebccc0 bd0ebabf 3cb8b0d7 bd23ca60 3bd7841a 3c4c94a0 bd017d6d bcf3ebaa 3d0f8e58 3bd59b8d bce8cd8a bcf762b7 3d1d8218 bcebde70 3cdd74ba 3c07703a 3cc81583 3d4aabea bc43c4f3 3c83948a 3bea1440 bc1366a7 3c77f00d 3d3b3a0f bd19e87d bcc871a7 3d053ba7 bcf9da3a 3cf7ca43 bcbab8f3 3cbabdf3 bb08d6e7 ba92f800 bd19524b 3c59c5a0 bd391942 3d47a225 bca9a980 3c916000 bd253d73 3bcab95a 3ced4ea7 3d364a03 bd011617 bc20c72d bd2debbf 3ca09c8d bcfc96d7 bc8e10ba bd0e4e6d bd151ad7 bb9276a7 bcc5f397 3d415308 bcf3041d 3d2e0ea5 39c7a99a bd401c90 3cbf03ea 3d313f0d 3d0a68e3 3cf0af4a 3b94549a bc9d985a bcad5ff7 bc538fb3 bc8bb9a0 3bc311b3 39e8eb33 39b9d4cd 3b014400 3ce63743 3d1a8325 3d35bc2a 38ddeccd bc3c40ed bccd2f60 bcc75660 bc3a637a 3d3cd5ea bc43eec7 3c85e0ad bd2e3637 bce2e857 bd29328b bc92da0a 3d2e6062 3c8e2820 3d096695 bd2c3a77 bd1fc198 3a922100 bb1ccbcd bc2d3e8d 3d3cd2bd bc8bb54d bc963bd0 bd0951a8 3d35bf4b bcab98ca bd36265d bd4c67c0 bc741020 bce38677 3c8c0e2a bd4b868d bcd59b7d 3d15c71f 3beb4a73 bcc92fd7 3a24a533 bd211325 3cd1e573 3b4ac6cd bcc43ec0 3c829aca bd322d33 bcc20aa0 bbea5e0d 3c780967 3cd06e07 3c3f2733 3d33dd70 3ccc21a0 bcf33c63 ba8ccd67 3bd40d4d bcec172a 3d0de42b 3c8b4c6d 3c9fcbea 3c521120 3cdd5d63 bc85e900 3ca3c6f0 bcc4d037 bcea3f2d 3cbc3e2a bc848a20 3ca6cf0d bd0167c8 3d050455 3c6acce7 bbe3b2cd 3cc216a0 3cb952cd 3c838970 3d203cc3 3cc64e4a bcdf47ed bc72989a bd28ca3b 3d0b2ab2 3b5776cd bb595b33 3d12f2d5 3c309f5a 3d01593b bba2a140 3d1fe292 3cf08ff3 bc77e5fa bcc564dd 3bcb6200 3cb434dd 3ba3830d bceb2593 bd09206b 3c4cda00 3bc9f28d 3cb75bc0 bcfc471a 3c5da727 3ca50b3d bcaab8d7 bcd190e3 3d4504db 3c606d53 3ca7f6e0 bc90f047 3b28d59a bcc42e27 bd3a5d0a bd4ac43a 3c0d9a47 3caefd7a 3ce33bc3 3d1fd56f 3a1a1f9a 3b40e280 3d1e7d0d bca7f383 3b47061a bc53b660 bcc2fe40 bb3947b3 3cdbf887 3c4b2020 bd156fea bd281545 3d13bf50 39db6000 bc341880 bd20375d 3bc31000 bc5984a7 3d4c4a7f 3d0f30f5 bd471f87 bd366e5a bce51d30 3d122cd3 3b581db3 bc4cfba7 bc83ac67 bd2cc16f bc7f7b53 38c86ccd bb388d33 3c157cda 3bb1e840 390c6333 bc48ce60 bd1bf91a 3c595f8d 3a62779a 3d01f553 3d1fa8b0 bc0a9220 bcbad1ba 3ca77a00 3d1cce5d 3c6aa0ba 3cfb2dcd 3cc66bb7 bc065bc0 bd3e1c00 bd2ecc47 3b9fca73 3d29d82d 3c918d9a bd3d4b8a 3d37ec57 3ceac233 3ab50c9a bc790147 3c73412d bd432102 3a4ba467 3d1ebf75 3d2bd38f 3baf1527 bcaa0f0a bd0bfe30 bca02ba0 bd16221f bc231b07 bd3b4deb 3bf6bf67 bc177407 3d24e33a bc1d5b73 bd39efdb 3d0c98d2 3d058c05 bd095230 3cedd8a0 bd2c8515 bd28410f bc50f8c7 bce3434d 3d01de03 bd26937d bd2f0fe3 3c21d627 bae19333 3d456908 3cc0800d bca8abc3 3d35b425 3be26267 bd44319d 3c8817ad 3d092d83 bc7fac2d 3d462ced 3cc4a7fa 3d1bf9f8 3c1a6db3 bd1ecba5 3c21fa9a 3c5ee7cd bad43867 bc6a86e7 bc6f3fb3 3cd9e20d bcdb2cbd 3d0d9777 3c7374a7 3c15cded bc88a97a bd2a1b12 bd0d545d bd3f928d bce702b7 bd34f7f7 3cb8dfe7 bd35350b bcf7ecd0 bd357c4d 3d141ccf 3c8cf8fa 3b77ec4d bc841743 baba1300 3d2d5f05 3c50c29a 3cd4fc40 3c074f40 bc842f00 bc44ca2d bcf06d07 3cec0f8a bd0fdb43 bc7288ba bc8daa17 3cc56767 bb96f340 3d16f0e0 3d070ab3 3d1270e3 bc7c5e80 bd07d9d3 3c0186a0 3ca8a19d bce51c9d bd3586e0 3ca8dd63 3d1b1635 3bdf2573 3c60924d bc8735b0 bd4a2eaf bd0c7022 bd2d8418 bd490ebf bcf6f007 bd070f55 bac8accd 3cbd455a 3c3e7900 3ce7608d 3ccb5a00 3b82655a 3cdb440d 3ccdff00 bd4b3900 3d114b0f 3cc10b60 3b63aa1a bcf09a57 bcbb2483 3c850573 bcb8c51d bcdefa10 bd2445df 3c8cd3d7 3be5a35a 3d1ba880 3b04074d 3d08f092 3cf89a03 bd385ee0 3ccbb27a bcc7ddc0 3d02e4b5 bc929c20 b9179ccd 3d480a12 bd2cea40 3ca9c773 3d45bd32 bd17b860 3c22a6d3 bc83496d 3cb6375d bce62670 3cbacca7 3c939143 3c88d7c3 3d2a395b bd0a4fa5 3d4736cf 3d488813 3d406acf bca1222a 3d13c0e7 3c80436d 3d4c70a7 3c504693 bd379208 bb7f8e9a 3c8ae850 3ca0453a bd2ba8aa bcf51940 3c9fa40a bc8a5ba3 3d1cd380 3d0c458a 3d33c188 bd46ded2 3bde9227 bd2efa4d bce32bc3 bd00b107 3d2cce3d bc091d4d bc5c5d13 bcc9a9a3 bd389602 3c922757 3a645f9a bd434985 bc9b0c8a 3c651fa0 bc663ea7 3d0b61eb 3d349c28 3d400fb3 bd331ebf bd015675 3d03eaca bb9aea4d bd23bead bbdee6c0 bc8b7317 bd0a3487 3ce4563d bcf317a3 ba2adc67 baf286cd bc9ab603 3bec45c0 3d308eba 3cbd7407 bcf50657 3c92d237 3be0dcc0 bc7c194d bbf2fc80 bd455678 bcc20410 bd0b0df5 3ce2f3a0 3c851b9a bd355bfb bce99d27 bc845fea 3b7a56cd bcaf6560 bbaf560d bce9a253 bd0cbbbf bcd7361a bc81b6d0 bbe95a33 3c761f80 bcf3abd0 3d35027d 3ccea497 3d4066df 3d040afd bd033f7a 3c55a0c7 3d0223f7 3d259f8f 3c7b780d bd423e5b 3d1061b8 3d33c910 3cdc6390 bcd11e5d 3c2e7c40 bcbe5fca 3cb62357 bced76f3 bc491007 bc51d2c7 3c5520d3 3cbcb583 bc868333 3cb46180 bcc1ca1d ba079200 bd208362 3c986753 3d25a8fb bd246e70 3c97d0b3 3d33cb17 bc765027 379fc000 bc43c9f3 bd350a5a 3c910770 bd156aad 3cc3143d 3c77daad 3d4a0225 3d2674c3 bb2656cd bb61049a bcdb1afa bb31939a 3d40c262 bc2123a0 bd1a97ff 3c5c8d60 3cccf717 bd18ad17 3ce0c1fd bd10d6aa 3cee37c7 3d2cce6f bd06b34f bd385fe2 bc25957a bcffd277 3ce053a7 bc916960 3d0962d7 3d4bd81d bb710a1a bd233c9d 3c9f7327 3d1177a7 3d2ce2b2 bd32f54b bd213a0d bce3271d bc29a3ed 3c7fb007 3d4ab200 bc08c9ba bd2bdfea bbd6bd8d bd49e775 3cff1777 bd3794f3 bd23de97 bd29c6e5 3d264f6d bcda25f7 3c0a4973 bcaa0b43 37af6667 bb2550cd 3bbbd180 3c7e250d 3bc2afcd bd42eea8 bc4e736d 3ca0240d 3cb6f137 bcbba7e3 bd274188 bb70c0b3 3cdb6067 3c81c8ad 3d30b3b8 bc019807 bd451ded 3ced3200 3bb4d24d bd474905 3d2fdd1f 3b1c9167 bd248f42 bb097d80 bc85bdc0 bd082adf 3d1a17d7 3ca47823 bcaa1680 bd0b7038 bbc4888d bcb32393 bd0bef32 bd3c6e20 bd48a047 bcd7aef0 3cf03df3 3cc59127 bb5cde9a bb6af167 3d28ca72 3c24200d bcfa54e7 3cb35e4d 3c890c93 3d13e873 3c0fa307 3cc598bd 3c521080 3c57bb53 bcaa3313 3d33ae6d 3b49f01a 3ac52ecd 3d1e2547 bc4fd333 3c2cd5cd 3ca8ee23 3accbb9a 3c6cde47 bbad98f3 3cf81340 bcf6e150 3d37d765 3d0c7eca 3d371a92 bc4d7667 bca305cd 3ab12b33 3bd32d0d 3cf4b5f7 bce5e970 bb6fd980 3d2c65d0 bc38fde7 3d0998e5 bd3dee48 3c86a803 bd32dc4d 3d09cd70 3cddf9a3 3d221b2d bb11211a bd456620 3cd1348a bc0e510d bc10b07a 3bde9673 3cd414b7 bc8f79e0 bcd5aa1a 3b996573 3c410607 3d282137 3cd5150d bc1b4ead bd10b122 bc5dc86d 3d478983 bd34f213 bc339387 bcb6e830 3b223d80 3c417f07 3bc4e540 3bac969a bd192187 3c0c3bba 3c286173 3d31d84b bd271b58 bae958cd 3cf24073 bd2899f2 bd3df147 bd0a27ba 3c87a7dd 3d2054a8 3cfbff20 bcfb97ed 3d325408 bd1f0750 bcbb2777 bd38f87d bcc7b43a bb1d7b4d bd1e6385 bd309072 3ce18fa0 3d02eae7 3d170538 bbe1204d 3c43c3cd bba2b2a7 bc4a6df3 3c522e20 3d1583da 3c5039da 3d378638 bcddbf7a 3cf71cbd bc22e0ed 3c6a4fb3 bb592000 bc78a800 3c1292ba bba3288d bcc4abd7 3ce199da 3d41f122 3cbd1b7d bc3e8e9a 3d19c7f5 bcd9ab30 bc6f2b20 3cbfc70a 3cfc8230 bbab261a 3c16576d 3cd0d977 baff4533 3ad42533 bcbd1460 bc047567 3d30d6ab bc5cbd53 3d375b80 3b7dfce7 3ccd821d 3cbdea2a bd0f8e67 3d474b7d 3d472717 3d22cc82 bce24503 bcb1425d bd44b99d 3d089625 3d166208 bbf296a7 bd28ba9b 3d23be9f bd486540 bc86074d bc96a207 3d3b5a73 3c8890e7 3ce71cf7 bcdde243 3be394c0 3b2d2800 3bc9ad1a 3c3ab06d 3cc6974a bd25e6d2 bd1bde2a bc5866a7 bc899f87 39555800 bd3f477b 3d28f1ed bc3f4013 3c9ede67 bd411bef bae587cd 3d34a808 3d1a3ce2 bb5f141a bd00829b 3d0a92ff 3d0c3e45 bc7cde60 3d449e6b 3cd62790 3d248a3f bd0d22eb bd2c6195 3cc9bf87 bc1c88c7 3ce34c3d bd36c997 bd173670 bcf430b3 bd1017d2 3d1ce907 3d03fd23 bb920a9a 3c77f973 3b7eab00 3d08f42f 3a670f33 bd457e63 3bc12e1a bccdbd1a bc173560 bc52c3e7 3bda530d 3bb4a50d bc1d726d bbee56cd bd103e88 bd3f7ed2 3cada320 3b982b0d 3bdc980d bce0549d bc7a9813 3b0442cd 3add0267 3a8da5cd bb0cc367 3d4c7240 3becbcc0 3c208cc7 3d265b4d 3d2d9eb2 3d273bf3 bd0b69fd 3d00f197 3d166c50 bc4a78e0 3c9ed530 bd200f23 bc1cf28d 3c4cff73 3bf2f7da 3ceba077 bcf33193 bcb061c3 3c892d5d bd43a75b bcceb8e0 3d252bb0 3d491092 3bb28a0d 3b5948cd 3d2add2b 3ca00c20 bc3085fa 3c3529e0 3c3d7300 bbf5ad5a 3b073800 bcf3d470 3bbdc500 bc0b7bcd bd03fb23 b6fd6667 b9c474cd 3af50acd 3c904887 bc73aea0 bab2ef33 3caab153 3d1716f0 3ca0c88d 3d202ad0 bcdd2dd0 bcfba0a0 bcf3d4ad 3cf638ba bc15b74d 3d38fe8b bcb99f30 bce36527 bd4920eb bc923227 bc75e1fa 3d3915c8 bcc317a0 3ca17d33 3d3f5275 3c8a4957 bafa179a bc2b0c53 3cf07dca 3ae7b7cd 3ca2acba 3d2d3b23 3d36227a bbd36eda 3d3e66cb 3d4098a8 bc30567a 3c372d3a bd35644f bcf4747d 3b079b9a bd16bdaa 3c9d3483 3c4969e0 3c644f07 3b1322b3 3d34621b bc9be0ca 3d410937 3c198d0d bcbd7253 baf8e200 bd1e0c0a bba71373 bc33b7da bcc81f17 3ca72cad 3d1016b8 3d4b0498 3c698993 3c49830d bc033e1a bcfaad00 3c1963c7 3c849053 bb7923e7 bc3e4120 bcf0ca1a bc8000a0 3b0a184d bca77b30 bcfc8323 3ca22213 3ca1ace0 bd24c565 3cedff5a bd1d9b47 bcb8a68d 3d1d743f bc463f67 bd14e3b5 bc8785ba 3d3d943f bd137bcd bd0e292f bcf76320 3d114520 3cc138ad bd200970 37f1b333 3c0cbf8d 3c3ca220 3bc1e6c0 3d1393a3 3cbed740 bb97848d 3caea837 3c90ed53 3bbc63cd 3d4790e8 bc9a1bc3 3cfb091d bd3f6ec5 bcdd43e0 3d17ac2f bca2cc4a 3cfc96ea 3cf19c00 3d2b65ca 3cf952bd bc280a1a 39858333 3aa1aa33 3b67c54d 3d33bcab bca93847 3d4827c5 3d4b9293 3c34bd33 bd0d83eb 3ced26a0 bb18ea1a 3d0642ad bc0a363a 3d2353a8 3cf3373a bcb4b4ad 3d26428a bcbf7393 bd06b172 bd45089d 3bbb03a7 bd3a6415 3d1bceed bc14938d 3d20db8d 3d238940 bc61ad53 bcaea80d bd0de96f bb1fbe00 bd4629ea 3cb9ac2a bc62da07 3cf9eb17 3ca01bf3 bd00bad5 3d240ccd 3d018efb bd1ff40b bc853140 3d0e6540 bd0a3453 bd1e136a bbf00073 3d239765 3cde3213 bd11685f 3c8d7a83 bc24edb3 bba0e18d bb26e2b3 bccdbd8d 3ca63220 bd119840 bca7ceb3 bd1420f2 3c98efdd 3cb420f3 3d2cc8e8 bce8a747 3d39044b 3c40f26d bd321848 3cf60b13 bc9eb6b0 3ae19567 bca74663 bc92eb67 3cf9c617 3bd3f0f3 3d1598b5 bd3c55c5 3bb95db3 3d0be928 3c85cced bb72759a 3ca2cb8d 3d012887 bd44eb13 bcfe484d bc61f36d bd30250d bd2ed0d0 3d35bd50 3be1f74d 3b971d80 3d14de48 3ca563fa 3d18bfa0 3d17f908 3cfdc633 3b7c0db3 3d3102fd 3d213d5a 3d182b37 3cde8313 bd02028f bd1343a2 bd4c833f 3c123e87 bd26baea bb9e0940 3cb0bbfa 3d0b8bf0 3ccf3a3a 3cd455e0 3ce528da 3ce777d3 3c920ae0 bc56d7f3 3d17534d 3c74ae2d 3c80da50 bd1b2e83 3c8b2db0 bd30025a bbd82c9a 3cd2a88d 3d281a0f 3ca8a007 3d1e8aaa 3cbcbdea 3ca241c3 bc959e73 3bf3ad33 bc55817a 3cb998bd bc8ddaed 3cc09153 3d29d485 bcdfcdda 3c9bf0d3 bd293152 bcbf2ae3 3d06adba bd25caa7 bd0fb6c5 bcdf2f07 3cff8da7 39a8bb33 3bf49cf3 3c4fe4b3 3c914ab7 bcb0ff2a 3cd59bba bbd61dc0 bd3855f2 bd363d85 bd3705cb 3d32cc55 3cbf2c3d 3d29296a bd3b969a 3a117f9a 3cd929c7 3cc48713 3d02cd5f 3cdde28d 3cda4783 3a8f02cd bcfade6d bd31936d bd43f75d 3cfca360 bc9f660a 3ccde830 bd4a28ba 3d2575a3 3c62c2ed bba489da bbfa93da bc2a56e0 bca8f9bd bd31b2eb 3c322d47 bd16474d bc9e9633 bb5012e7 bc223d2d bb94994d 3cf8973a 3c36dce7 bcb6653d 3d2fcd8a 3d032317 3d3179c5 bd0186d5 bd1e13b2 bd29192b baabb4cd 3c45dff3 3cb47de0 bc1f53e7 3cde1157 3cd03f73 bc10bf8d 3c8f5aa0 3c2b518d 3b585b67 3d1cc2eb bd206dab 3d3d3a9b 3c6f70d3 bd077a43 3d2ab53f bd0ca9a8 3d17b323 bce59587 bc70d980 bc138207 3cd56e93 3c99d083 bcd67bda 3cac5f77 bca3aae3 39fa6267 3be908c0 3d0b54a2 bc786c7a 3c47713a 3d47daa3 bcd98cfa bcc59fa7 3d4a5b03 3cec2957 bd0191cd 3c7eb95a bcab311a bccf8ec0 bcd2ef3a 3be34da7 3d281bc5 3b94e627 bb35cd67 3cc3a72a bc15f2cd 3d03873d 3cb967ba bd14fd37 3b363a67 3d259683 bcaad640 bbbb12da bd4a0f8b bcaac903 bbd7c29a 39e50d9a bcf422ea bc16ca60 3d48da10 bd34cb9f 3cf1e78d bc8f6b9d bd0629ef 39413b33 3cbbbd03 bc8e2ded 3cdfabd3 bc94224a 3d223c03 3c860953 bcdbc400 bceed18d bd148dda 3c9baa07 bcc576e3 bd0f47a2 3d4824c5 bd1a94c8 3d35473f 3d296f00 bd10c55a 3ba61980 3d43527a bc93064a bc90995a 3b654767 bd1b0378 bd172ee8 3cffe230 bcba1ddd 3d3bebcd 3c3f4ab3 3c0f125a bd022acd 3cf0844d 3aaf8dcd 3caea10a 3bf312e7 bd41aca3 bc6c7560 3c20018d bbab9ada 3aca079a bd26454a bc620b47 3d0b206b baecaecd ba4c679a 3bf9094d bc57bfa0 bcea22a7 3cd94e9a bd25a845 bc19ee00 3cb3a66d 3d35662a 3bf9dda7 bd0b7133 bcd26080 bc3370fa bc9304e3 3d43a633 3ca767d7 bc88734d bce2479d 3d0c3c75 3d0e2ef2 bcaff123 bd47d49d 3d29986d bd03a0cf 3cfe46e7 bc9eba9a 3d42b223 3d0fe52a 3b4b3b4d 3b18bdb3 3cf20aad 3bc0949a 3d481dd7 bcad9293 3bf5ca8d 3c728940 3c6fb90d 3c83211a bcedabbd bbe3fd40 bd067f08 bc597440 3d1e2b03 3c9d0cfa bbe6d340 bcff25b7 3c37e3c7 3d23a8fa 3cbbbe43 bd1cd75a bd0155b8 3d3bd46b bb9c4767 3d370a93 3d47ca5d bce1f477 3ca0a7f3 3cf4215a bba9b100 3c9a8e9d 3d49c8c3 bab3bc67 3c055aa7 3cf8f8c3 3caca957 3bce1d27 3bb425a7 3c8aafea 3cf4b9d0 3d2ca55d bcdc7c70 bcb6beb3 bd1fd5a2 bbdeaf67 bae77867 bbbfe5c0 3c1f1053 bc9fa23d bc8a7310 bcb950bd 3b8885cd bd0b81ca bc8bcc3d bd42c573 bc996a67 bcfb9d23 3c1214a7 bb581580 bd47f8f0 3d29c027 bc1f5dfa bc89e87a ba9340cd bcf33570 3d385adf 3d034b95 3d0bf137 bd005808 bce2aaca 3c67136d bd1949cb bccb8d07 39639b33 bab44233 3c831c0a bbf5bb27 bcc2ced3 3ca63d50 3cdb68fa bc826497 3c058c67 3ca299c0 bcffe010 bc2efd27 bbe67633 bd3de6e7 bd3ce68b 3d380d6d 3c1adbad bd0166f2 bc1ce77a 3a924e9a bcc6287a bb7ef24d bd3ef73d bd16f3bd 3cc99b13 bd0365d3 3d394c08 bc9820fd 3c4ab0c0 3d063932 bca2cd5d 3c99f13a bc25a69a 3d09a7fd 3c12c7a0 bc560fc0 3c93df27 bd415bf3 3d4009e2 bd111c87 bcfdc237 bd03e0ca bc2475fa 3c297b00 3cf5296d bc4be6f3 bc686dc7 3cf482e7 bd172b35 bd17292f bc79d8ba 3d3c292d 3c17b85a bc4b7593 bd19b333 bd2b2f85 bc40e993 3d32ccf8 bce6ef9d 3cd21567 3ab14c33 3d0ff340 3d07d093 bd3e6ce2 bcb51527 bc87c410 3d032312 3ceab76d bc711f6d bd447cb2 3c5d0100 bd0b0922 bd4bd38b 3d15a7f5 3d327917 3d4bb1d3 3d31ee08 bd00ba7f bd24742d 39c8ff33 bc6fbead bd294eff 3c11118d 3d1f84e5 bcf4170a bc138647 3d2d704d bd1df532 3ccf6197 bd3be4c8 bca59937 bd21562f bd1bfb00 bce6c9ed 3d17558f 3d3a9d77 bc67fb6d bc6e540d bb4931e7 bcf8598d b89c7ccd 3bc1bfe7 bc8241d0 bcd61913 3ccd16a7 bd328787 3b8b3d40 bd4ab0e3 3d3403a8 3b96021a 3d225f2b 3c704c47 3b8a71a7 bd412a12 bd2d0fe5 bc571093 3c7052ad 394f1e67 39c3e267 bd1ce287 ba849000 3c65d767 ba363b33 bd472c9d 3ca7cb63 3b83db67 3d1f5b7a 3cd3f040 3bd010a7 3ca14900 3c809f63 bc61f5a7 3d2fb807 bd27ca3d 3d34ef7d bb887ecd 3d0160c2 3c66fd00 bc9cbf3d bd345cb2 bca4282a bc1bd173 3c7a1a13 bcd656da bd39ae7d bcaca647 bcdd1dca bc7b1587 3c2112a0 bc58bb6d 3d3c7a82 bcc43faa bd3d31d2 bc0b0b7a bc0e54fa bd018e72 3d10fa1b bab802cd 3c3cab00 bc7a6b00 bca3feed 3bd19940 bc1c80cd bd034903 bc9869d0 3d2380b7 bcce911a bb99190d bd2eb263 3cad9fa0 bc137dcd bcf2479d 39fcb4cd bc0c9d5a bd0c7c3b 3babbf73 bd2f5155 3d1c7faa bce27fdd badde300 bc95238a bd050517 383ff99a bc813180 bcf5d827 3d27416b bd30a5d7 bcf556f0 bd442643 3a53d867 3c66aa87 bd17ab15 3cf50253 3c13308d 3d1b6760 bd418f1b 3c79de20 3d0b97ad bbfa7300 3c8a3cc7 bc639b2d 3cc9c4f3 bbddc4cd bc0e7f80 bd3eaafa 3d21e197 3b5ef567 3d109250 bbc92040 3ba50127 3ccad303 3acb54cd bcb9ca40 bd390ad3 3c13641a 3d17d2ba 3d46583a bd3fa9df bd448ac7 bbc5cf1a 3c6b53a7 bd46ecfb bd0c839a bc9996e3 bd0ffed8 bd3d59cd bc9b4987 bd382c75 bcf367c0 bd34953b bc4bd133 bb24c167 3d30e0e3 3d04c00f 398f2000 bce248da bc4b0d60 3d2faec8 3c9652da 3cde5bea 3d3e8fbd bc59c4e7 bd05fe6d 3c5fc8d3 3c778fad 3cc978aa 3caf4f00 bcdebb27 bce9ec4d bd1f7f5a bbb82e67 3cd50a67 bc9503ed bd158daa bb33d94d bd4967ed bce78df3 bd163dcd bcf9b3ad 3c559d53 3c67a08d 3d36cbfd bc70bb0d bd21e028 3d08cc8a bc1624ad bd251cab bd0e4380 3b83a333 bc7215fa bd30acfd bc8ac020 bcafb21d 3caeccad 3bb39767 bd0e7b47 bd0455c0 3b274000 badc4b9a 3cc4a023 3cf1b970 3cb3a58d bc8c356a bc31c22d bcb96b43 3d256f42 3c83ec6a 3ccd73cd 3d365f72 bd444098 3bd411f3 3b628867 bb648fe7 bcc15457 3c81f3cd bcd7e403 3d48f375 bac29d00 3c3bba4d 3d22a50d 3c16e0ad 3ceeb2f7 bc685ea7 3cf5adda 3b4232cd 3d295347 bd2dc253 b9879400 3d012770 3cae16bd 3cf21cdd 3c1c80c0 3d209e0a 3d20642a bd1f86d2 3c2e16da bcbba7e3 3cc8da50 bcf78cad bd2f21ab bbce6800 bc1d958d bced8aad 3c3e8973 3b8a2580 3d1a08df bd0311bb bc806493 3c2a033a 3a24d99a 3d175192 3c92dbb7 392f3667 bd1ef402 bce36c13 3cf79213 bd1c20d5 bd0fc97a bd02ac82 3cfe6f13 bcbbf8c7 3c78984d bc3a7a9a 3bea43f3 bd2ab260 bc73c67a bd4443d0 bd0c9ba3 3d1df582 bccd6353 3d093a6b 3d215ee7 bbd49ac0 bd24ad57 bbdd4327 bce218f7 bd1062da 3ce4eef7 bd165d8f bca114ad 3be6a7c0 bbe1650d 3d2b0885 bc4f9800 3cfcaf03 3d2a376d bd3b99e5 bcb81a8a bd21fcbb 3d3e0078 bcae8b87 bc501dda 3cd7b1ad 3cf87ebd bd03b7a2 bbb3cc40 bc733e93 bc036bc7 bd404c82 3ca10d40 bd08f817 3b74bbb3 bd1a8330 bd2c0c6f 3cefb1d7 3d210088 bcef1f27 bd0b66f3 bd222d1f 3d3a6103 3cc244f3 bd219570 3c84a4bd bd2deaa8 3d032df3 bc64c4c0 3c740fa7 bcfffa8d 3bbd4833 3d464187 bcf4d147 bce23e43 bc89e0b7 bcca1183 bbcfeb9a 3b9ea540 bd3a5bfd bc9aa7d0 3d12e065 bcf24790 3c334cd3 3cabcec0 3c3d0d20 3d2ebe9a 3d240c22 3acd79cd bd3897af bc1726e0 bd2fa6e3 bd176a13 bbafc5e7 3c45f140 bd3c72b3 bc22a680 3c78d893 39d9c19a 3c65420d bcf4443d bd2d351a bd17327b 3d0c4c65 bc8c8dc3 bc691327 3b320a9a 3caefb3a bd13375b 3d29b8b7 bc0610c7 bd00f5ea bc845ea3 3d060838 bc1c51e0 bc64526d bd2d21b0 bd1e7b28 3c06fa8d 3c6dc0cd bc850dfa 3d12b40f 3b70de33 bd176b40 3cf3c5fd bcdd0227 bd34042b bc9b026d bc5c2227 bd3f6d8d 3d1593ff 3cb9e42d 3cd2e25a bce8f0fa bc83d587 bc9ba6da bc9f30d3 bd1d76b7 ba5644cd bb4eb7e7 3d324f17 bd443898 3d256bff bb5f43e7 3d41b1e7 3cfddf70 3ce16d0a bcf03e33 3d27ec85 3c9a633d 39c2a4cd 3d1b0ebf bd47cd30 3c802bdd 3cefcc1a bd419ab3 bcb681ca bba46eb3 3ca8fd7a 3bbf4ab3 bd1e3e9b 3d47a080 3ca1cc27 bc5f2780 bc56826d 3cec1d83 bced8a13 bd22675d 3cf57113 bc12024d 3c9af62a bcb37fc7 3b3a84cd 3d04c0e5 3d33cb82 3d1fd89d bc85de60 bbf88e8d bb37e233 bd03e9a2 bd1f1095 3c7195f3 3c8fb8d7 3d03ad2b bccb81bd bd03ee9b bcbf8aa7 bd017583 3b2d43e7 3c4e6740 bceb420a bc39738d bb68eae7 bb20dc33 3cce2107 3cc53bea 3d4aca6f bca252f7 3d47bbed bd29fe38 3ad36bcd bd3c0f30 bcc663f7 bd0d1738 3cf4bad3 3c8cfd97 bd047223 3d481bb5 3d0844cf 3c12abba 3d3c88ef bd1ac66a bcef4b8a bd2f33a8 3d40b423 bcc648c7 bc9d975a bd376ab5 3c2212ba 3d19b782 3cb7c0d0 bcfdbdca bc818590 3d3252d0 3d2c747b bbf14e80 b9f2a400 3d3131d5 3c266613 bd34cc50 3d1c2b93 bd08e740 3af0c967 bd0b5593 3aac1267 3d32b7a5 3c8a4323 bd0757b5 3b999fcd 3cc74060 3b5bf667 bba39cb3 3d39514f 3d009c02 3d201a9d 3d46c6df bd1132f5 bbf993e7 bd3398c0 bd46c5d7 3cbb7c33 bb802d0d 3cd39f87 3cf9c86a 3cbc0513 3bb4b133 bd07beab 3ce4e1a3 bd4a1553 3d409fcb bd248cb3 bb85489a 3d1776e5 bd1645e8 3b0b1a9a bc2ba353 3b747180 bd393087 3c44b72d 3ce63ee0 bcb07947 3bd3a4f3 3bfc7900 bcb8c8e0 3c19b3b3 bbaf2ee7 3d232a43 bbe42fcd 3bf19ccd bd344810 3cc0d04d 39943667 3d2dab45 3c6071c7 3d141ac5 bcdf47da 3d29379d bcf0a720 3c264b2d bd37dfda bcd36f3a 3a870d9a 3d380a1f 3d387eff 3d297537 bd44d397 bace0d9a bcadefba bc821e9d 3ca53523 bb7edc4d bb1ec0b3 3d09a94f 3d199345 bd3b4488 3d41757b bc787180 bccd4ded 3c3dc767 3cf0bcf3 bc88756a bcc50ca3 bc9da12a 3ca204e0 3d12aabb 3d2583af bc5ab727 bb9a3467 bd0d94f0 bb7e571a 3c7437da bc891177 3d1911f5 3d26f73a 3d0bb5f2 3c7b5e2d bd2e8a42 3c5ce85a bd1ab1bd 3c2bdc9a bd0a3057 3ce0951d bc8e4910 3c472d00 bd479c1b bd000e35 3cba134a bcb46aa0 bcd822a0 bc44570d bd43d1dd bd3070b2 bcdde7fd 3c68a313 bcc892aa 3d4c72f5 bd1c9a13 bd0e6937 bca02433 3c9bd443 bc9995d3 bc6a3aa0 3b7db2e7 3cd5127a 3c80c0fa 3c911cad baa6c767 3ce2e613 3d409910 3d3d5fcd 3c8bbe30 bce4a45d bcc33900 bd27bd4b 3cb52bb0 3cea1c37 3b29314d 3cf9d3ca 3b0246e7 bca31f43 3cc506d0 3d186195 3cdf9e93 3b4a2300 bbca1733 3d26d255 3cd60b4a 3c15eb9a 3d327b5b bd4092da 3c9f43d7 bd431805 bd047610 bcd0b457 3ce6ca3d bce07bbd 3c34c987 bd468023 3b60ac9a bbbc82c0 bca48c07 bc0379c7 3d028370 bd32650f bc87c6f0 3d29b550 3c4afbda bcb5ebb7 3c982327 bce4290a bd3a6188 bc7028d3 3d0e921a 3cb52c67 3cc016ba 3b5e25e7 3cb0785a bd49f420 3b87ae9a 3c98ba9a 3d119f2a 3b859933 3c148f9a bcb29bed 3c78cf00 3d1d5f45 3d403343 bcc5964a 3c996037 3c4d5907 bcc695b0 bcc7c880 bb710267 bcdb6637 3cab30b7 bd111eab 3d11132d bcee2b47 3c8baeaa bd47f578 bd14aa12 b90b5333 bc5174ad 3d4184d7 3be16fda 3c55571a 3c2b228d 3c9577aa 3c971bad 3cff9ea0 3be4158d 3d479fb7 bce559f7 3d26ea17 bd1892fb bd2024e0 bcf1d943 bc19439a 3d28b873 bd137425 bd2c66fa 3a5038cd bc55ba33 3d462fa0 3d08ad07 bcc4b8ad 3c3dd4d3 bd022a65 3c9abf57 3bc4c38d bc9660a0 3c813b70 3cbd0e03 3cd8f0d7 bab29000 bd49ebe5 3d18f817 3ce1cd87 3ceb8e2a 3ccf8010 3d498e12 3cdfef37 bd3925cd 3be5f0f3 bc95af37 3d4262b7 bcdcdf23 bce44cda bcbbfc30 bcae96d0 3d295f87 3d37e3da bc34354d 3bf5f64d 3cb4904a 3cd45d57 3c8a735d bbe92667 bd06b9f5 3d38f0c8 3cd9ec90 3d103d52 3cbe8cd3 3d1fd133 3d3ee72f 3cfaf0d0 3bdf88da bcbc344d bb96c41a bcbfb1ed 3c78c09a bd3d93af bcf01027 3c305e2d bd10d02b bc0d8980 bd15a6a2 bb5381cd 3c81b350 bd4918f7 bcca8a6a bc8cfa17 bd063652 3c084260 bd27c753 3d21e44a bd3b192d bab6c033 3d34ec20 bbe7350d 3d09cc4a 3ba8eee7 bcf440a7 bc1cdfcd bbb771c0 bba0270d 3cbea65d 3d3a165d 3cbf883d 3c801700 3b0eb280 bc267e67 3d2b738d 3d07c2d3 3c9f386d 3d2ecf80 bc9056d0 3b20aa4d bd0aedba bd0c4aa8 3c5bbf5a 3d2f0660 bd0ae5b3 bce9175a 3d208257 bc79ccc0 3cfa6c00 bc8ed403 3ad97967 3cc6ff7d 3d17af7d bc52a787 3c2e8287 bd39b5f8 3cfd73fa 3d31d59b bd103bc0 3ca9ffaa ba8c79cd bc464a73 bd193d02 bcab4560 bc7d5bf3 3bcfe200 3d0424c3 bbb061b3 bd4b3a52 3d0c5deb 3b950e33 bd036f25 bd16e6c0 bc6ea5c0 bd316415 bcca2013 3ca9e2ad 3c4c6f2d bc2c2e67 3d26126b bce89797 3c80f9a7 bd396cf2 3d3f3a35 3ae0a333 bcfbd130 3d48dbad 3d2a9c63 bc356ee0 bd40d010 3b9bdf33 3d3634b2 3c79d600 3c1393ed bc3a4f9a 3ba18ac0 bc440467 bc5809f3 3d3cdf6b 3a789ccd bb642833 bcc3f740 bcaf6f2a 3d309a08 3cf309ea 3d3e467f bd141fe0 bcb994ca bce4b457 bc8dadb7 bd3a9732 3c828830 bb316ccd 3c0702fa 3bd80c80 3be1bfcd bad83b67 bd32c7f2 bd089130 3ca3f1f3 3caadb73 bd1a1b4a bc2fb7b3 3d2956d2 bb86afc0 bba982a7 bc8360b0 3d10feda 3d1bfced bd27a5eb 3d22d5da bcc97913 3c8b6593 bb46fc00 bcef565d bd4a699b bced822a 3d304dcb 3cd10fa0 3bdc761a bd4abcd7 3c338dc7 bb0ab233 b91e499a bcf914e3 3d03728d 3c8ec7fd 3c8d9cf7 3be78ac0 bd359cdb bd19823f bc20dded bc0ac90d 39f80267 3cc6713a bd05d4b5 bc7ea53a bd0532e5 3c3b4c53 bd1688d3 bd446a4f 3bce4c33 bbe7d4b3 bd1f9d40 bc9a6d1d bd086b0d bcf6ed8d 3aee92cd 3cfa6a1a bd307f90 3d334d10 bc8f4b27 bc9b5c20 bcb56a97 bc3194e7 3cdfbb2d bd414a78 3bc8249a bd31bad8 3c7e96e0 3c2e3813 bd49c433 3ba0e20d 3b9ef69a bc724d67 3d0a30ab 3d1fe958 3bf1b1da 3c89c463 bca5f0a0 bc89870a baa10167 bd16469f 3d18d8ea bd38b302 3d42f95f 3cddb167 3cfa06ea 3ad94c9a 3d00079d bd06e9af 3cd0f31a 3d1c3472 3d274395 3d3184f2 3b5103e7 bb8b8f73 bcd89db3 bc0d33ad bd375d45 bc63c9da 3d145472 bbf7b9b3 bc87c657 bc9af14a bc702ef3 3cc07f47 bd2c0bdd 389fa333 3cb8b16a 3c54e01a 3cb86a9a bc98dc13 bad681cd bca55357 3cbb828a bc6828ad 3c2b2e9a bc7ff6e0 3d3c0832 bce28c8a 3c3cfcad bd02982d bc4e3ee7 bd4782e2 bc58bd33 3d4aa8d8 bd271ca3 3c836960 bc9940a3 3ce7163a bc3c697a bd45074a bcd40b83 bd1027a3 bbc23933 3d0b1daa 3c102847 baa496cd 3c396f47 3cf1bd30 bbc0be1a 3cf19bdd bc98a8aa 39b39c00 bc6d7f00 3bf7af5a bb830740 bca83407 bc830d70 bd3b236d 3d2b30a5 bc920530 3ccf523a 3cd3d10d bd22db28 3c958cc3 3a1e2867 3b652fb3 3c990ba0 bccf6bca 3b18fd1a bce5ca7d 3c1762fa 3ce0ae57 bc39a913 bcac473a 3d3f586a bd18b8dd bc0bef6d bbb09f33 3c923837 3d35435a bcc8b9cd 3c82513d bd2ae8c0 bd36c9ab 3cadd1f7 3c70f927 3c96d71a 3d3ae9c0 bd19aaa7 3c1e507a bccd862a 3b7f9cb3 3ce4b443 3b7e2acd 3d1cb0d8 bcd4fee3 3cdd07fa 3d4460bd bcca4857 bd3ff163 3c8b83a0 bd27b892 bc800cea bc8db8c0 bc036ff3 3ca0f477 bd11657f ba1efc67 bd2b852f bcee37fa 3d3c36af bc7bfb6d bca824ba 3d3ae6cb 3cd9b2dd bc36faa0 3ca28af7 3c6ca70d bc8babe3 3b85b44d 3d2a8830 bc4976c7 3cd487d7 3c9bc02a bd3cc5a7 3d361205 bd31206b 3b394880 bc6e68b3 3d2e2f58 3d47ba28 bd1b6f5d 3d18f935 bcb3e3ea bd395305 bc875c4a 3c48b053 3d2639ab bc562c27 3bfbcc27 bc47c0e0 bcaccadd bd2e7c4a bd3d4092 3d2cee9a bb1ae9cd 3d1c0f32 3d46d96d bca968da bc0868c0 3cc440b7 3d127e3f bcf70bfa bc579e40 3d479b42 3c9f0b80 3d1e1a2b 3bc6501a 3d4ac55b 3b82384d 3c9dd5da bccef690 bc825d20 bc5a08a7 bca5dc87 3d0abe0a 3ce9fed3 3bf8d480 3d2d221a 3ceb6a70 bba1c28d 3cdaee3d 3c5c7e80 3d3c31c3 bd1b54f0 bc72c5b3 3c9d965a bd366813 bcb7842a 3ca78c50 3d09ac85 bc089acd baf1e200 3ba61fb3 3d4a58e2 3d3c74d8 3d0bb128 bcc29683 3c9a09fa bbb0c733 bb73e000 3b85091a 3d007045 bccf6983 bcf8a543 3c1929d3 3d3b37cf 3ab528cd bc884d00 bd2a2dc5 3d4bccc2 3bf07ecd 3c9391a7 3cfb70bd bca96f03 bd475b42 3d23dfc7 3d2bb4c7 3cb03c7a bd2c3103 3b72601a bbe69e80 3cc08e23 bd466d5d 3d3c82ea bca2a127 bc6fde6d bccdec43 3d2e1a32 3d0f5f27 bd489da0 3cfdebf0 bd47aa97 bd37155d 3d20795f 3c645bf3 3cfc7580 3d18c9e7 3cc72553 bcd36ed3 bc88b1d7 3c45cd2d 3c7ba213 bd211903 3d0861ad bc4e1b8d bbf62d4d 3c1145c0 3d1fd602 bc20b9a0 3d0963af 3c4177c0 bd44b055 bb9c1fc0 3c70cf40 3bc53bc0 bc68ac2d 3d3b8c2b 3cae9d57 3c6fc7c0 bb3a57cd bd081988 bcc30860 3c06247a 3d229ac8 3c792447 3d3b0c3b bc9175da 3d0f618d bd011470 bc08ddf3 bb41869a bbdc0567 bcb1b6b3 3ca59607 bca83fd0 3ce4d37a bd052b0b bcb77a10 bd143bea bd097660 3d0b4ae3 bd2eee5a 3c434d0d bc72bd1a 3d3de9fa 3cb7016d 3c743ba0 bd4c8af3 3d14c637 bcc54d0a bd3a2d9d 3c181f7a 3d22d597 3bb0c033 bc578600 3bb72280 3d3a374a bd2f72c3 3d15a682 3cef2bfd 3cb65b7a 3ccad5e3 3cb3746d 3cb5d763 bcf043b0 bcfcc9d7 bce80b63 3cd36d9d 3a31cc00 3d2f97a3 bbe68bf3 bd276a13 3cd86eed bcace0cd 3d34c385 bd44185f 3c940563 bd378150 bbf48640 3d0525a2 3ab60b9a bcf6c8d7 bb8a2ee7 bb13c49a bcb868a0 bd093602 3d0899ed 3d3551cb bcf809fa bd21582f bd22ebcb 3c901433 bb8069a7 bbd83ccd 3d271568 bcaff04d bc00e273 bc6cefa7 3d45f105 bc0a8333 3d219e55 3d076990 bd4272ad 3ba66f80 3b1097b3 bcca2583 bba7555a bd13f1af bcc79bfd 3d3480aa bd170812 ba1ea133 3c9ac750 3cb0b7c3 3d431b6a 3d3f8005 3cef6503 bcb23083 3c0c0587 3b429bcd bd4aa3a5 3d3f332d bc9181c0 3cf5af60 bd31d3bd bd33a7bd 3c69eb1a 3cec4f0a bcb90ab0 3c6c7533 bc577e00 bc097c8d bbd2f5b3 bcc3bcf3 3c4f5bc0 3d42a860 3cc837ed bd32401b 3d354223 3bdfdae7 bcabc633 3d3a2307 3d1c3a0d 3c9457ca 3d37dd18 3ae189cd 3ccd0957 3d46c1c8 3cf8e3e7 bc7a08e0 3b18c467 bc2a78cd bd1b2bb2 3c005aa7 3cea28f7 bca27933 bd1021d8 3d2dbe92 3d032445 bc9492c3 bd1ea5b2 bd27b3ba bd4c4e98 bca9e3c0 3cf2606d 3cb69f53 bd0eaa9d 3c36fb6d 3d3c2a02 b9712667 3c37ec20 bbb09d33 3d1dbb45 3c9cf337 bc84435d bc2602c7 3d142422 bc9f677a bd2cf332 37c98ccd 3b1541e7 bd254ee3 3c609c8d bd26659d bc0acce0 3cc0e1ba bc9c7d50 bcb9ce9d 3d4574ed ba1356cd bc3c45ad 3d3ec39a bc9aef50 bd436ce5 3c963013 3cb9649d 3bf649cd bcb9c28d 3cf9e3c0 bb8aec27 3ca8e220 bc715840 3d315b5a bd16832d bd2d8717 3c1a059a 3c95500a 3b2afe33 3cccc1d3 bc83796d 3d2dd4fb 3d1660a0 bd2d6a00 3c316b7a 3d1b6eba b9dbb99a 3d437522 bc5531da bd038bc8 3d014d70 bc0f7e80 bb61f5b3 3d0d5482 bc9b7740 3d40aa05 bd2c477b 3d0316a8 3d0cb55a 3c831787 3d281cf3 bb943de7 3d402a22 bc6c0900 3d1c1cb2 3d23cb93 3d43fe57 bc8e676a 3cc4994a 3d422f40 3cfc24aa bc9553e0 bca4fe1d 3d4bcfb7 3d374dc5 3cf90863 3d1cc802 bc21d193 3c812df0 3c64958d 3c4b109a bd1c3533 3ce0d237 3d42a50a bc0eb833 bce92173 3c9c410a 3c2426c7 bcb6946d bc65e820 3d1b0295 3d31f6ba 3d39689b bc8b3c70 baedf500 3c057173 3c0ad4c0 bc74464d 3d426975 bcfe3bc0 bd49bab0 3d0b4433 bd04a677 bc4e7d7a 3d0d7070 3bb7c100 3cf2917d bd1f710d 3bf07ef3 3d1bbb7b 3d1a2465 bd24bbc0 3cc02c90 3d305fff 3d017daa 3cf17a20 3d2b14e8 bc6a5b33 3c89e5da 3d23de55 bbca4000 3cb05370 3ad1729a 3c617627 bd011288 ba9541cd bd08b748 3d25293b bd39b638 3d284585 bcec5e20 3cc83b63 3c109f80 bd059de8 3cc2f62a 3d4691f2 3d2194ad 3d4c5368 3ae70c9a 3d153dca bcf305c3 3d181173 bc8a7717 3d087d88 3d0a304f bd04c195 bcdac8b7 bd147fb0 3cf2ac70 3c371d67 3c60e273 3a1b4f33 bd086508 bd1d1f82 bcfef16a bd0da5b7 bd1f5cab 3c67a0d3 3d296765 ba0ddd9a bc9bebc7 3d17fbab bd100782 3ce05ecd 3d28609a 3d135452 bcf6b41d 3d3fb1f3 bd14b592 3d206f1b bd45d387 3d3ce527 bc266fed bc819bad bd350590 ba94ee67 3c4b5ce0 3d1956fb 3a55fb9a 3d1142e2 bd453a4f 3c96cde3 bd26b4d0 3cd675ca 3c9f8753 bd276760 3ce9427d bd397253 bb8b9073 3a71ad33 bc3b54a7 3d21d088 bd3510e8 bbad25b3 bd164ec3 3c5464e7 bc99303d 3c32c360 bb390ee7 babf82cd bd44ab95 3ab29900 3d454668 3ca4b4fd 3b0e479a 3d095f1b 3d31d1d8 bcf3fa50 3cfdfd40 3cd8abc7 3c0142f3 3cdba60d ba953e00 3c3051c7 bcd7fc97 3a9fe39a 3c788193 3d415c6d 3b21f1b3 3b848400 3b99b45a 3c9b2893 3d05c8b7 bd167c90 3d4bc8f2 3d35a1b3 38a8b000 bd02a6c2 3d4b8e70 bd09cc78 3cdbf0a0 bbb9b45a bcbeed0d 3d2b0c2a bd24ad65 3d46f15a 3ced9f53 ba3dd600 bcff0fba bd01cb3f 3d4b3e97 3cc12ed0 3b6bbe9a bcd85c1d bd1d383f bd072090 3b0422b3 bc479b6d 3b3bdb33 3d434b2b 3c5df69a bc23db07 3d441207 bccb6a2d bc8a4b73 3a36fc00 bd3be08d 3c7608c7 3d11b8eb 3d0719c2 bd4b462f bd10a422 3cde70c7 3b71ec1a 3d3c2f6f 3b7430b3 3ac4139a bcb6d870 bca3fa0a bd44ca72 3d278f35 bc1bffc7 bc91f1c7 bcd99307 3cdf45a0 bd143f35 bd149ebb 3cbf2227 3d3462a2 bc6e8a67 3bd3d09a bd04c0f0 bc247da7 bd16a077 bcf37ec3 bb08fae7 bd188715 bd412727 3d2f0bb8 3b18b7cd 3b74c04d bc9d7373 bd27dad5 bcb2e147 3d095737 3c1351e0 3d349c22 3d08f8d5 bd3a39f0 bb83621a 3d1e2bc3 bc1c1ef3 bd2c5708 3d11e1ff bcdd702d bd12be0f b8ae1000 bc96f5c3 bd32ed8b 3d3c41ba 3bd618b3 3c390013 3cf448e7 3b4caf4d bbafcf73 3ada459a bcb81d5d bb8c3c73 3cb6ce0a bb106c67 3c9d68cd bc948907 3b04c0b3 3d036745 bc715eb3 bd40a11d 3bd68640 bd36cc47 3c8c7d07 bcf49270 bd332a7a bce99eea 3ccd8550 3b88b04d 3c9956f7 bced1d30 3d1b7f7a 3c1d95a7 bc8e45a3 3cfcdfd0 3d103eab 3d40ba0b bd3567c0 3c560233 3d052e57 bce53563 bd39199b 3c9d95c3 3c5dcdd3 bd045d30 3d2fb732 bb216833 3c189873 3c3f1053 bc4db85a bd3b092a bd338032 bc90eeb0 bcf52a2d bcdc9bc7 3ca6cdea bce8b79a 3d40d52f bb844f80 3cd61c20 bb38aee7 bd442217 bd1cc413 3cf40143 3d2560a3 3d1560f7 3b8c1da7 bd38d20f 3c1952c0 3d3208cd 3cc76500 3b16c89a 3c5c563a 3ce1175d bd2c1f53 bca00793 bce155b7 bcbd17a3 bcbbbe20 bd01bd9f 3ca6cd03 bc6953a7 bcacac97 3d395228 bb89d8a7 3d0461c3 3ce38060 bd31127f 3cc39b27 bc4b7047 3d023d4b bccbacc7 bd1920af bcd00053 bd3acbb3 3c610220 3d26bcd8 3c980130 bd25bada bd2ae3c8 3c702700 bcf70810 3c922cc0 bd13cbf2 3d159410 3ca64f33 bd3cba13 3c498acd bc77c0b3 3d3086ca 3d2a34cb 3cbb2e3a bcf056e7 bce56d3d 3d3153e7 bd2e8333 3c358d40 3c669be7 3d04f60b 3d02a6eb 3cfc7f6a bd3a7def 3cc4d8d7 bb570080 bd4b0852 bd4cbef2 bcd248b7 bd397f62 bab39a9a bce10107 bd43b26b 3b6ac180 3c817ee3 bccf6dfd 3d1a298f bce38627 bc587df3 3afdc400 3c4851c0 3bac3973 bc71ca73 bd36c32f 3ac6e8cd bd451e0d bcae6b4d bd415fed 3c959ce7 3d38bec0 bd17b423 bb70cb9a bbee4a1a bcff0cd0 3c7d2593 bca003c0 3d053298 bc4180fa 3d3e11d7 3c327cad bd050282 bcdd234a bbd4c28d bd1e9db3 3d2fd198 3cd99d6d bc1c0c73 3bce4380 bd3fa1dd 3c656cda 3b468533 bcc5fc20 3d48c197 b9b8a59a 3d149793 3d3e8037 bd44d70f 3ce4b497 bcb7caba bd095f93 bd1d4af2 bcdeb7e7 bd31a7e8 bcdad6ed bd3c282a bce84e63 bcab25ea 3cf5101a bd4231a0 bbdb4700 3d0c541a bc560ba0 3cd6a103 3cf126c0 3c808bb7 3cb7137d 3c4310f3 3d0f23ab 3d4c7bc0 bc92e8b0 bd40ff07 3bbd2ab3 3d0c8e03 bbdb37a7 bd40fb70 bbba581a 3ca280ed 3a661f33 bc3c86a7 bb61161a bb904800 3d37de9a bd4a899f bc7a1407 3d0d607d bc8d9197 3c7e4693 bb8f2f73 3bc2f50d 3c3c9b93 bd1f1372 bcd02dc3 3bfec4a7 bc59bdcd bce576bd 3d4aeeab 3cc63b0a bcde3d0d 3cca2faa bd292da8 3c1966cd bc9bcfb0 3b5afc9a bd04c7c2 3c76e287 bcb0ce17 3d295283 3cee6ba3 3d22598a 3d3d8758 3d0e45a3 3cc95e97 3ac9e99a 3c3bbf53 bc9c0743 bc430fa0 bc1c4a5a bba58f9a 3d383f50 3d1110fd 3cebe413 3d05dce0 3cb5ed6a 3ccca7da bbe012cd bbaa9c5a bce82ad0 3b241733 3d36e572 3c5376b3 3cd27bad 3b075c4d bd4b60e7 bd0faf0b bd0fcfd2 3ca522bd bced4900 3c9fa8da 3d1f731b 3d284d4d 3c480907 bccddbc7 bcbe4d4a 3c9356a0 3c77f213 3c076ead 3cccc8dd bcaad6fa 3c83d630 bd4a64b2 3d465467 bd0aa905 3b458300 3c9e7d20 bd02c9eb 3ca15dfa bc655847 bd29dd73 bce44530 bcb3b8e7 bccfffe0 3d11a6d3 3c0a148d 3c8dca10 3c55a02d bd1a486b 3cff9347 bcd20133 3d051363 bcfd8220 3d398ee3 bbfe02f3 bcaa73c7 bbba1140 bafb8c9a bd3f952d bd396377 bca53bbd 3d25148a bd064018 3ca7fafa bd1245da bc0bd553 3d1e0fb2 bd380cb7 3bda4a1a bc03904d 3d457a3d bc14c893 bd14a860 bd01993b 3bfe6127 3bde1f80 bd16def0 3d1abe85 bd338c93 bd05793b bcdb1980 bd3ce5b2 bd225307 3c9ac92a 3c848873 bd047872 bcc7d3fa 3c9359d3 bc33ac4d bbc9605a 3d03bee2 bd1fa613 bc98eb70 3bd9e033 3c2e5f00 bcc2ff5a bc983fd7 bce0c7aa bc92981d bd03fb4b 3c52e1e0 3cfff2fd 3d3abd1a bd097163 3c8a588d 3d441e0d bce0ffaa 3c85badd 3d10dabb 3c05a460 bd1b899d 3ca5cbbd 3d27bde8 3ce0f16a 3c52cd93 3bc6dd00 3d373998 3d126852 bd03d38d 3d2758e0 3c0a09cd bced05e0 bc9e03d0 bd35e462 bc65149a 3d17d8f7 bca78f93 bc0e559a bcc54327 bd3a2e2d 3d176b92 3bb9869a 3c1eae40 bcd711d7 3d3edd28 3d47193a bd195eb8 3cd8e1d7 bcd08eed 3ce3261a 3d249242 bb981280 bb68f19a bd2b210d bcedc837 bbbf735a bd24a8c2 bccd6aea bbd2d85a bc3c1bd3 3bc5a427 3c5b6bc0 bc643b1a bb83b900 bd152f67 bd099ba0 3cd96d3d bd461bf5 3d3b87aa 3b624f67 bc76721a 3d0c2afb bd405aa0 3d1e5483 3b8e8533 3d2c928d 3d084c15 3d211a98 bcecbfba bb82854d bd443b85 3d2ef60d 3d3e7380 3b13d700 3d17d497 3c6cd4fa 3d22c235 3c8b2563 bca12503 bd47ed43 bc432b20 bd283b0f bd25e5d5 3d4027a7 3d0be580 3d082b23 bc9e42ea 3c08f3b3 bd07558d 3d3ff798 3c318bd3 3d005325 3ce1ccd7 3d330c93 3ce1a7e0 3a0c1400 bcdc656a 3d30feba bd2c629d bd06e475 3d26a490 bc23cc8d b9a94b33 bd37818d bc9b60b3 3cc5a730 bd3edd07 39f854cd bc2ceda7 bc21a3cd bceed0ea 3d3c2c4f bcadca90 3d32ec02 bd3d1d27 bca0cc20 bd389bfd bd0e0615 3d23d892 bc93a547 bd374e83 bc7ad9d3 bd1e0fcb 3c61ab5a 3d078fb0 bc144fe0 b9d6ac00 3c545d87 bcd1d677 bcdd9e37 3c32955a 3cc05c10 3c8705e7 bd3675e5 bd393cb7 3cae8f6d 3d32f740 bd178e92 3a850333 bc852c40 bd21264a bd0cca9b bc9b86a0 3c06c147 bc34b7d3 bb625f4d 3d414f48 3c3d9920 bd06aaf2 bce62f9d bd27af0f 3ce15630 3d1d5ca0 bc7c072d bb996ec0 3d40f9af 3b92c127 bb6b85b3 bd0be068 bc5f05e0 3c790067 3cf474b3 3ccee87d 3d08edad 3d33f53b bd45b12b bd0230f2 3d4c186f 3d2896d2 3d4613ab bc06753a bb486767 3ccaa470 bbdc7f00 bc5cbdda bd4bea87 bc2481ad 3d03823a 3c9c0e0d bb0f9bcd 3c09ecad baa5aacd 3d1fd6fd bb3e42b3 bce102fa bd06fd5d bc264513 3b016733 bcbc5f3a bd103f4b bd303015 3d45ca72 3d44e78a 3c310847 3ba14a5a bcd97377 3c6d48a0 3c8fc017 3c37dead bd0a0bc7 bd213d4d 3d4074b5 bc08583a 3b7c49b3 bc883df3 3c52b3a0 bcbedce7 bca7a5d3 3caf9b5d 3d12a4e7 bbd2aa00 bc5331e7 3d39d18a bd3d918b 3ca99320 bd148aed bc87618a bd46b010 3c2aa1ad bca8199d bc8796aa bcc29d37 bd1d9c32 bd20e94f bbce4327 3d380503 3d23119d bd4a7377 3cccee7d 3ae4099a bd12940a bc4f9fed 3c9f928d 3d39c0b3 bc6a3967 3ce9e647 bd131083 3d40c045 bc73968d 3cdc06a0 3d166f82 bc4a2660 bd3de672 3d156b9a bc688ec0 bcab7f77 bbf5af5a bd17ca07 3d01f30d 3cb0429a bd0f7598 3c867c50 bcdc5297 3c263cda bbf0b58d 3cb4651d 3d237b67 bd1c0607 bd27309f 3cdbcacd 3cab31bd 3c8531ed 3d091adb bb2d9c9a 3ca5829a bc80c947 bc6dcd53 3ce1eaa3 bc0649d3 3cbdaffa 3d0fae85 bcce6000 bcf47fe7 3cab60a7 bbc7f027 bd1ab495 bcfd1e6d 3cbc7483 bbc07a33 3d014108 bd0aec32 bd472083 bcbdcae0 bc75be67 3d2448a0 bb3a704d 3d3f2bc2 3c15e94d 3cc3db67 bcbce3d7 3cb828cd bb6b9180 bcddd330 3caf67a3 bd25ddd2 3c80b3bd 3cebf947 bbafa4c0 3c3ec547 3c8a4b57 bb1e86e7 bcce8747 3c48e89a 3ce00580 3d3cd255 3b93f280 3ccf9b90 ba821e9a bd181ac5 3d25ca17 bcdd315d bb8de5cd 3d2eef4d 3cc90210 bcc3588d bb1fe000 bcf5f620 bcff03c7 3c6aa91a bcb29eea bd3bd2a0 bd101450 3c0a0bad 3d0f142d 3d3a1810 3c9072d3 3c9746d7 bcae87e3 3d1de40f 3ca2a067 3ba52327 3ac0c400 bd044412 3d3396e8 bd4606e0 3ce49cc7 bd21903a bce78a5d 3d17bf68 bd251242 3c22411a bd3b8495 bc61d2b3 3d020a05 3c8c2400 bc13f087 3cee65ea bd31839f 3d153433 bd04c39b 3d1c8725 3b343e1a bc13b860 3d29022f bd299692 3b6535b3 bc76d780 bc58d37a bcbdeaa7 3c8549a7 3cd5d13d 3d457ea7 3ce42b50 3d22d12f 3c860100 bd158388 bbbbeaf3 bd29a5ea bd30f5f8 bd0500aa bca83117 bc83dad3 3c790aa7 3ad0e8cd baa50433 3cdb8403 bcb77dba bcaf95ad bd37b2ba bd2c7830 bc837933 3cee0530 3b295d4d 3d4a3055 bd30e120 bcd4a41a bd1d3cd3 bb5a781a 3cb4afb0 3c97b9f0 3d04463f 3c879253 3ca8de10 3c6b303a bd456acb bd13008a 3ce0a2c3 bc8b28e0 bc2b3267 3c1344e7 3ba2575a 3cb10f97 3b3109cd 3d39e5e2 bc5db720 3cafd9dd bc51792d bd2e1cf0 3d28061b bd2d02d2 bcdf3d47 bc88673a 3d12ee90 bcf26440 bd3df9f2 bcd3975d 3d106463 3c91b0ba bba2c79a bb532de7 3d4af07b bd0beb70 3d34127b 3b4578b3 bd45baab bca6533d 3cd66763 3c018d7a bc4ba7cd 3c8364b0 3c5fdbd3 bcd4d0f3 bd451ec7 bafcf39a 3d38036d bb9fc373 bb92878d 3ca14390 3bd2ed0d 3cbc04b0 bc9403c0 bd359745 3d4089f3 bcb20ae0 3a9538cd bcdbe5a0 37d24ccd 3b14e133 3cacb53a 3cfaf157 3c3bdde0 3d145012 3cc757ed 3d0ec137 bbc2bb9a bd1fef75 bca5f873 bc4ba967 bced3073 3c0cc267 bc724d60 3d2c31d0 3d4adf0d 3ada3f00 3d3d0457 3cc56e40 3c42bfc0 3d222f38 3c8b3670 3cb3259d 3d3ae703 3c22965a 3cc3f447 3ccac217 3b0e7d67 bc8312b7 3c942b6a 3d46ea7b 3c1211ed 3c386f93 3d06b7c7 bd230c93 bd15a453 3ceb6377 3d3ce91b bc048ce0 bc56f52d 3d3886ba bcf49310 3cf35b3a 3b8f89b3 3cb04323 bcc493fd bd3c2e6b bbade68d 3c813187 bb58354d bc24aaed 3d2a4742 3d293a1a bc948ee7 bd26ca8f 3cfc891d bca17a9a 3c145293 bd3faea3 3c31aa80 3d14b428 bc7c77da bc9e42b7 bd239caa bd0e0173 bcd21bb3 bcf473e3 3b8e1ca7 3c008ac7 bcfc52ca 3cd7df4a bd051777 3c9e71bd 3c54f6da 3ccd1150 3d090aa8 bc090147 bc5d5d1a bc91528d bc91476a bcd29153 bd303042 39fa959a bd2f1bb8 3d36f0ca bc94238d bd1fbe8f 3d36ab75 bc2f5ba0 3d232cad bd3a4955 bb01da80 3d43f52f 3b3fdd9a 3d0a2877 bb78b04d 3d294187 3cd82753 bd22cf77 bbf8dec0 bd32ffe0 3c4a774d 3d148262 bcad9440 bca1335d bd1a97e3 bd22af50 bcd6dc20 bc25019a bd035118 bbf0c29a 3ba8cecd 3cca61a3 bd398652 3cbdee07 3ba10100 bd38b1db bb641eb3 bb0c944d 3ca551e0 3ca27663 3be4b373 3d46f983 3d40f230 3ce6c210 bd3310b5 bce046dd 3b62949a bce293c0 bd0881c2 3cb13eda 3c0a3800 3c348c6d 3c77e767 bca91fca bd06c1a2 3c68e5cd 3d47c977 3c11d1ba bd467a1b 3d318667 3d03642a bcb6cf43 3d2586ea 3bec9540 bc935517 3b3782e7 b6fd6667 3c933edd bd37b490 3d17f822 3d22c083 bc853050 3c8c4323 3bafe240 b9cf20cd bd3fb2c3 bcd1c750 bca71d4a 3d18e835 bcb6de47 3b08c600 3ce7beca bcce87b0 3bff054d 3ba1f6b3 bbf0eef3 3c3a384d 3cc6bd20 bccbf0e3 3d108590 bd2aba83 bd24f4fd 3cb5055d bc72e3a7 3d0a8d45 3cf9ebc7 bd390963 3c76295a 3c723bba bd09040b bd48089a bd3bfd97 bc8619dd 3d25cc3b bd14786d 3d2c4175 bd0a43f5 bc4684d3 b9a58d9a 3c5cd127 bcb98ccd 3cfd3be3 bb8c73a7 3cd3bea3 3b6fc79a bcd2b6e7 3d3001f5 3d45623a bc13a05a bccd7dc7 3d3846eb 3d38b655 bc0745cd 3c0b520d 3c502220 3bf05a9a 3bb0538d bceaf013 ba8c8900 bbc69da7 3cab028a bd229a5a bbab528d 3d2f8c70 3bbd4533 bd05f5d0 bcad16c3 bd26ca55 bd4b439d 3bdc25da bd02eeb8 bafb6fcd bc029673 3d2f023d bc9745c7 3d292513 bd2c1cd0 bb48c7e7 bbaacdcd bd3647a2 bcd580b3 bd2c074d bd2f9c48 3d2264a3 bb266080 3c20fb20 bd169f20 3bd9c48d bd3acf08 3ced719d 3d2d7750 3c28e920 39546667 bcf5ecad 3d25723f bd0930e0 bcc5bd47 bc632ac7 bd39a72d 3cbfa610 3c9cb4d7 bb977ff3 bc68ec1a bd13dcda bd1684cb bca1fa3d bd053d72 bd0d901b bd0d4ea3 3c625f73 3c828c1d bd0f7a82 3bd51f4d bcda10c3 3d4baf80 bbf644b3 bcc3294a 3c627d93 bcb5a347 bd44e422 bd461ca8 3d018fe0 bd45e0a5 3ace029a bd04b353 bcdae980 3ba19740 3ccf3c5d 3cb60fb3 3c7d25a0 3d1b275f 3c7f8f80 3d2afc55 3d2c3250 bd412932 bc1f5bda 3c1e442d 3d0f37ff bc491d00 3d21d77a 3cc363aa bd19c672 3d17237f 3cb239ba ba6aac00 bcd6bbc0 bc6e5dcd 3d0ed7c0 bce2a13a bd37342d bd457fd0 3b50fe00 bd3b7f5d 3d40f8e3 bcb45163 3cafcce3 bd2fc6f3 bd0e5357 bc2390c0 bcd4b39a bb1fb89a bc2729c7 3be912f3 bd110460 3d35ec23 3d10d1cd 3ca19dca 3d00416b bb81208d 3d39fbb7 3ad67ecd bcae0ec7 bc14869a 3c85f280 bd262d03 bd30ce82 bd46f810 3d16b285 bccce46d bc51ba5a 3d3f3d6d bbcfc700 bc2a01b3 3c9a1ce0 bd111ba7 3d4bc680 3d214b9d bcccff20 bc8cdbf3 3d2f4c00 bcd472b3 3cecb9da 3c978407 3bc77f27 bd261075 3c26628d 3c6148f3 3d21e563 3cb2d3c7 3d38f955 3d3a9188 bce4f350 3d17ce77 3d10f997 bd41c4f3 bd325fb5 3c417480 bd2764af bb9ec9b3 bd10f090 3cdece0d bcd98397 3d124010 3c2c0053 bcfebb67 bb1c82e7 3c96d627 bd3c5198 3a7fe4cd 3cb9e63d 3bab67cd bd413b2d bc4a62c0 bd37b6b7 3d290d6b bc0c1bad 3d02deb5 3d46e2df bcc3e8c3 bd24ce5d bbe43667 3d4562df bd04ba40 bbd6c240 3d2acbab 3c87fcf7 bd125323 bd0dc7e5 bd245ef5 3c922797 3c8f4bfa 391814cd 3ad13f67 b9d60d9a 3c2a34ed 3baffaa7 bd379f98 bb3f7900 3c911f8a bbf48500 3d179d9a bccc495d bd172a37 bd1bd37a bb4d0c80 3d09ae28 bd258568 3d3fe707 3d3a52ea 3c9d6973 bcdf0233 bc9991c3 bd181a7f bceb58ed bcbc256d bc69a713 3b92ccda 3c210347 3d355777 3d233f0d bc36f8a0 3ce7e17d 3cc68223 3c74c44d bd36df5b 3cf447e0 bcd71d10 bd05bb17 3bbfb600 bd1c4bcd 3bbf3a5a 3d03aa7a 3d46c95f 3bb18680 3d3b9245 3cf614f3 bd1dff92 3d4190a3 bd16b740 bd16bf50 3c081660 3cc25987 bd111c52 3d2ec7fa bcc0266a 3d3eede8 bcb43e50 3c43f27a bd104a57 bc691f27 3d3904eb 3bf3df4d 3d339467 3ab61467 3ca70887 bcd974ad 3d38205d 3ccec257 bcc4cdea 3cecba07 bd20ec73 3c623660 bcc818ad 3be854c0 3c8be1d3 bd2411ff 3d406a78 3c1724da 3c188ccd bbc30727 bc46c507 bcfcb1ca bd1cc1f5 bd12e11a 3cc24100 3c6958ba 3afa71cd bcffaada 3c51a8a0 3c882f40 bc26c167 3d1a6e0b 3d2f4c5b bcff5963 bd177dab 3c98f247 bd346fbf 3cb963d0 3cbe00f7 bd11477a 3d194e93 bd374ef3 3c86438d 3ccc475d 3cb8dd07 bcdcecc3 ba81fb9a 3cc751bd bcae0d53 bd01d898 3d255dc0 bb63a74d 3ce1efd7 3d465387 3c2b35ed bca78a7a 3d1b5fdd bd0753aa 3d3ab5b0 3d29a4d7 bcc86e6a bc9da86d 3cba8eca 3b5b2d9a 3cec5fd7 3ce0e30d 3d3366f5 3cf55f6a 3c0b6c3a bcc6fa70 bd29efa3 3d4b6fe3 bd262d98 3d3588f5 bcc37f27 3b3b964d 3d107563 3d0e2cfa bce69700 3cbe7720 3d1afcef 3b90a827 3d12aae2 bd25096b bd346237 3d01da3d 3b8cc8c0 bd13dcbf bd2974f5 bd1e2e87 bc8dda97 3d1d99d8 3ca039fd bcff569d 3d1ba1cf 3c358a0d 3c8838ea bd2ea7a8 3c1e6a67 bb936433 bcabfb30 bc804c83 3bd1e74d bcc1351a 3c2b5a33 bd472b55 bd022e32 bd4cca7d bbef339a bc92a0da 3d1f97a8 bcb2d1b7 3bee001a bd3ed2d2 bc8d7d73 3cfc7dba 3ab2b867 bbcbc080 bcf35947 bd080c57 ba7d58cd bc4e9dc7 bc2a6b07 bd3f763f 3bf5a94d 3d32f2cd 3d127ab2 bcb1e493 3d2c406a bccaa3a0 bd229c6f bbaecee7 3d1ce23a bd2aa623 3a808867 3d2ca8b7 bb864e0d 3bf61d27 3c686fc7 3c0c5e4d 3c46217a 3d2f286b 3caf8437 bd49b2d2 bd05a645 3aacd433 3c4c97e0 bc216d07 3ca7de87 3d0ddcff 3d491ee0 bc898e90 3d22504f 3ccd0ca7 bce755b7 bcee28ba 3d36719b bc900f27 bca35420 bc6ef893 bcf93d3a bc09fdcd bcb5db6d bc8a7b20 bcadfe9d bd09b2bb bc4b99a7 bd05f17a bd45db27 bbc9081a bc974dbd bcd89f2d 3d2ce992 3ca88ce7 bd02fe77 bcc9e720 bd26a63a bd42343a bd138fb2 bd0870d0 3b704e67 39bb2d9a 3d03641a 3c8cdd87 bd1cbca0 bd309605 3cf6cefa 3c4d8f20 3d12da22 bce18afa 3c9d5ca3 bd464777 b910e4cd bcc28ca0 3d06fb7f bb9de767 bd44d5d3 bd45ea88 3bc92ce7 3bec0ee7 bb1e9fcd 3c8364ba bc31957a ba5b06cd 3d48ea12 3d47b01a bcb71aa0 3bf4fb5a 3ce5b920 3ad6e09a 3cd7426d 3cbd3c23 bcdd6e0d 3d00b9c7 3c4886c0 bbb3388d 3c5deb80 bcf820d3 3d2b82f5 bd4a0a6b bd040b93 bd3b8fcf bcee0263 3cf53cc0 bd26510f bcda732d bd195db8 bcafc063 3d0ce28d bc8bec63 3c9e7813 bd49f790 3c83704d 3d17d380 bc88943d 3d00d245 3d1fbb75 3d34f375 bd3d020f 3d469538 3b0e3233 bcee09e0 bd0c619b 3d2472df bcf24fb0 3c55d200 bd0736fd 3c6db100 3d17d4da bbf1d640 3c972d3a bc0dfe9a 3c485993 bc3e07c7 bd0e8847 bd16aeeb 3b7ace1a bca3a62a baef8800 bd3ce38a bcc3f0d0 ba023000 bd25fab5 3bcaadcd bd146c68 bb07ad80 bcfc83d3 3d3e25f0 bd113487 bcf3c76d 3c21cdba 3d33fa40 bd244023 3ccff580 3bb186f3 bd228d6b bcccf4da bcb31b00 bcba60ba 3d3da56b 3ce9d9f7 3d2f8bed 3cc64943 3d3c00aa bc16e02d 3ca629e7 3c795213 3cee4c7a bcac7fa7 bd3391d7 bb585633 bc692bed bb26a167 bd412e6b bd03192a 3d42c537 bbf2d233 bb814140 3d3daed7 bc83005a 3bfe5233 3d214892 3d21509f 3c65660d 3ce0551d 3d34de0d 3ce0ec0d 3d28374b 3ce200b7 3b5f51e7 ba2f8133 bbe68a5a bcab393d 3b383833 bc1f57e7 3c4adf9a 3d18b890 3d2d439a 3ac194cd bbe10600 bcd9cdf7 bcb78a7a 3c059d00 bd2fb5b0 3d097dff bb6d509a 3ce0edc7 3d2775a0 bc90ca8d 3ca82360 3c30ea0d 3cc4e770 3d4a9a8f 3d2b9b30 bca9c86a 381a6ccd 3d4bcc8f bce1ff27 3b49f9e7 bd42e67d bc884ce3 3d30b397 3c907990 bc57d92d 3d1df175 384cc000 bcf417cd 3cf2e09a bd26ea2b 3cfc830d bcdacb5d 3cfc3aa3 bd2dac82 3d2a8952 3cd52b83 bd232027 bcf43ff0 3c5590f3 bc65de7a bc3fc953 bc362613 3b6f2000 bc420787 3d2f2f67 3d3fd460 3d249283 3cb77897 bd1bec92 3c484080 bce07f5d bd3681d7 3c1a7780 3c0117c7 bd084ff3 bd11942f bbdde233 bc14bcc7 bd41465f 3c2923cd 3caa9dfa bd39ad7a 3cc5bd87 3ceb6a67 3d36451d 3ca8cbed 3d07011b 3bdecd0d 3a8f7f9a bc8a6bc0 bc18784d 3c00d7a0 3c2d3053 3cf78b20 3ad620cd 3d323377 bcef1737 3c42b340 3c593e40 bd29bb95 3cac18b7 bb7e0f67 3b930ec0 bc310f5a bc809e53 3cb8961d bc72647a 3cbbdbf3 bd24801b bd336bd0 bc662500 bd02b020 3c1ada33 bd0baff0 bd0f1ff2 3cbc0be3 3cbf83f7 3d1b3c3f 3c3e7afa bb79aab3 bd01df67 3c304073 3c53086d 3d2ca80a bd08e1bf 3b8d2b80 bbd2621a bcdfbbca bbf49ab3 3cdd8617 bd46cca0 3bede3e7 bd15dcab ba8bd633 bbc148b3 bc035540 3cddceb3 bcdd0ead bc4c2180 bd356615 3b908f67 3d2890cd bc54faed bd3a3c6a bb4b7a67 3cd88bb0 bc14be80 3cd64ff0 3ce49e73 3d3d6dd2 bd3caa9d 3cb1e440 3cc39bf7 bcb1e07a 3cb43e53 bd3a4e7b 3d3d1787 3ac17000 3bcd13e7 bbd64e4d bbc3d140 3c91ab9d 3d1b0f8f bd37dcdd 3cfd2ae3 bcfa22ba bc29fa2d bbd9da33 3c4b9b2d 3d2a285b 3d4a0d7b bcbdee0a bd3a9542 3cd79107 bc56e867 3b41a49a bc969d4a bccf089d 3a18a667 bb33d24d bd2792bb bd2340c3 bca53c13 bc0218c7 bd1085f8 bb7fdb80 bcc34367 3b1053cd 3d1d9437 3d1b6ae2 3c94eb20 3b5e1967 3cc76e10 bc934bf3 bcfe0d7a 3d291fcd 3d1eec13 bd3bc80d 3cc8ec83 3c96a7a3 bc721167 bd1b7f05 3bfb70a7 3ca9bfaa bb45564d bcfc5c33 bca54bba bc62134d 3d36b303 bc9e312d bd30637b 3d166615 bb4cedcd bd1b80f5 3d0a8522 3d0991ea 3c180a60 3d3b2112 3d338e1d 3984c99a bac3a09a 3aa93acd 3c9a9f50 bd3c7923 3cc4cba7 3d260c98 3bbf6b80 3cb1ef6a bd1e29e3 bce249cd 3ce4dc07 3ce3ef33 bcf8efa7 bd40ccef 3cacf857 3c2626ba 3b1faf1a 3c7e91ed bcaf3e3a bc9f8183 3ce2f9f7 bbb2d5b3 3b70eb4d 3d25ac33 bcc211dd bab09200 3d13032b bc8c5b17 bba371c0 39ebfa67 bb0c9400 bc21d1b3 bd084225 bb39ca4d bcfe1cea bd43f087 bd33d995 bcf61f10 3d04b88d bd0720f8 3c1184da bc54df3a 3d02a100 bcacf317 3ca76803 bc5b03f3 bcb036d3 3c81ae80 bb579f1a 3d3fcb05 3cf3c7c3 bc747c47 3be780a7 bc52aef3 3c4109d3 3a234133 bc0b8060 bce7f390 3d1e2c9f bcf54690 bd41ed1b bd187afa 3cf26af3 3d050ccb 3d45ac8d bcbaaebd bc0a8e1a bd3219fb bcf4b603 3cfe3b9d 3d068d18 bd3ec488 bc0ae067 bd02f832 bc0b8d47 3d23ffe7 bc8b1ca3 bbfa0a8d bd164e2f bb60b11a 3ca359c0 3c06fc0d bd236827 bd25713d bcfc5fe7 3d230ada bb036a1a 3d49eebb bd23f9e3 3cafc87d 3b87879a 3b7b2ccd bd0982c5 bd2f780a bcee56ca 3d3cd7cd 3d2ed18d 3d103bea bc606380 3d238a95 bcf478a0 3d4c10e8 bcffdbbd 3bb1e6f3 3c6cccad 3cb60860 3d4badb0 3cbc5a9a bc071aed bd2d2657 bc8461bd 3cff5a77 bcb1bb83 bd2a6d35 bca058ea 3cab7bca bc2d699a bc2cf0c0 3cee32cd 3d197177 bc93f16d 3ab9d867 3d1a5c1f bce98f97 3c9a76da bcd4511a 3d355887 bd255a65 3c08a1c7 3d0949f0 bd1d17db 3c8c4e80 bcb62b0a 3d291ccd bd478437 bcb81ced bb7d9fb3 3c20f987 3cca84bd bc489bba bcf6f4ea 3d175132 3d052af3 3d25908b 